<unk>	0
<s>	0
</s>	0
<cls>	0
<sep>	0
<pad>	0
<mask>	0
<eod>	0
<eop>	0
.	0
(	0
)	0
,-,–,£,€	0
▁	-2.59474
,	-2.92468
'	-3.39547
▁i	-3.43301
▁the	-3.46897
▁you	-3.5466
▁to	-3.68623
▁that	-3.90964
▁it	-4.00815
s	-4.06695
▁and	-4.14032
▁okay	-4.23296
▁so	-4.31948
▁a	-4.32372
?	-4.43781
▁is	-4.56263
▁on	-4.6631
▁for	-4.70035
▁can	-4.71154
▁have	-4.80037
▁yeah	-4.85
▁just	-4.86566
▁your	-4.92509
m	-4.94226
▁we	-5.00189
▁number	-5.02106
▁me	-5.05587
▁this	-5.10654
t	-5.10987
▁if	-5.12137
▁in	-5.19826
-	-5.20758
▁do	-5.21803
▁be	-5.24946
▁call	-5.29417
▁one	-5.30276
▁or	-5.32199
▁what	-5.32709
▁like	-5.34515
▁of	-5.37412
re	-5.39088
▁then	-5.41557
▁see	-5.41953
▁my	-5.42409
▁right	-5.44273
▁but	-5.47714
▁there	-5.5081
▁let	-5.51511
▁not	-5.53291
▁dialpad	-5.54673
▁with	-5.6096
▁yes	-5.63462
▁alright	-5.68777
▁they	-5.70776
▁phone	-5.71026
▁now	-5.7155
▁know	-5.72072
▁up	-5.73761
▁account	-5.73806
▁no	-5.74443
ll	-5.77891
▁go	-5.78329
▁thank	-5.8005
▁will	-5.80964
▁are	-5.85966
▁was	-5.88584
▁from	-5.95425
▁don	-5.96485
▁as	-5.97611
▁how	-6.01911
▁an	-6.03388
▁email	-6.03938
▁need	-6.0699
▁here	-6.073
n	-6.08045
▁sure	-6.08341
▁when	-6.08656
▁get	-6.14635
▁line	-6.14944
▁all	-6.19452
▁well	-6.22106
▁would	-6.22888
▁out	-6.31349
▁want	-6.31393
▁our	-6.32534
▁mm	-6.32843
hmm	-6.32929
▁because	-6.33002
▁at	-6.38928
▁name	-6.3918
▁back	-6.39701
▁calling	-6.39919
▁did	-6.43314
▁check	-6.45108
▁going	-6.47606
▁two	-6.47744
▁conference	-6.48799
▁gonna	-6.49652
▁try	-6.55608
▁got	-6.58035
▁app	-6.60059
▁should	-6.62271
▁sorry	-6.63134
▁please	-6.64805
▁help	-6.66465
▁main	-6.67844
▁actually	-6.68035
▁them	-6.68477
▁calls	-6.68732
huh	-6.69959
▁able	-6.71087
▁make	-6.71434
▁correct	-6.7157
▁time	-6.71738
▁click	-6.73306
▁about	-6.73368
▁think	-6.73751
▁sir	-6.75321
▁good	-6.75742
▁uh	-6.76599
▁bye	-6.7817
▁support	-6.78297
▁does	-6.78551
▁give	-6.79813
▁hold	-6.80135
▁says	-6.80377
▁set	-6.81682
▁use	-6.82099
▁other	-6.82182
▁yup	-6.83013
▁he	-6.83143
▁where	-6.83934
▁three	-6.84056
▁mean	-6.84242
▁only	-6.84927
▁again	-6.84942
▁cause	-6.8561
▁much	-6.85693
▁send	-6.86431
▁hi	-6.86467
▁any	-6.86844
▁user	-6.88738
▁using	-6.88842
▁settings	-6.89341
▁still	-6.91615
▁way	-6.9163
▁say	-6.92442
ve	-6.94581
▁dot	-6.97821
▁address	-6.98591
▁us	-6.99324
▁first	-6.99688
▁hello	-6.99951
▁she	-7.00093
▁trying	-7.00169
▁team	-7.02135
▁which	-7.03283
▁also	-7.04862
▁could	-7.04924
▁has	-7.06879
▁numbers	-7.07029
▁log	-7.07582
▁five	-7.09213
▁already	-7.09996
▁same	-7.11112
▁over	-7.11684
▁by	-7.11998
▁into	-7.12478
▁may	-7.13199
▁add	-7.14507
▁office	-7.16428
▁under	-7.18021
▁new	-7.18497
▁day	-7.18523
▁why	-7.1853
▁really	-7.18642
▁problem	-7.18885
▁thing	-7.19453
▁department	-7.2062
▁second	-7.21104
▁option	-7.21137
▁through	-7.21233
▁great	-7.22249
▁been	-7.23422
▁their	-7.23472
▁something	-7.24235
▁some	-7.24626
▁com	-7.24631
▁take	-7.26357
▁computer	-7.26419
▁said	-7.26899
▁work	-7.27094
d	-7.28791
▁ahead	-7.29059
▁four	-7.29251
▁hear	-7.2926
▁once	-7.29802
▁put	-7.30554
▁her	-7.31097
▁anything	-7.33503
▁thanks	-7.34966
▁hey	-7.35194
▁more	-7.36583
▁another	-7.38808
▁people	-7.39295
▁had	-7.41325
▁those	-7.41405
▁message	-7.41682
▁voicemail	-7.43746
▁different	-7.43897
▁free	-7.4481
▁change	-7.45537
▁look	-7.47169
▁admin	-7.48859
▁today	-7.48885
▁seven	-7.5012
▁very	-7.51613
▁six	-7.51675
▁uberconference	-7.5303
▁end	-7.54222
▁before	-7.5451
▁eight	-7.54988
▁who	-7.56245
▁business	-7.56922
▁wanted	-7.56978
▁working	-7.5841
▁after	-7.58431
▁open	-7.59151
▁welcome	-7.59443
▁users	-7.59559
▁google	-7.60325
▁company	-7.6109
▁else	-7.61456
▁guys	-7.62109
▁moment	-7.63072
▁service	-7.63448
▁maybe	-7.63757
▁doing	-7.65064
▁request	-7.6689
▁nine	-7.67217
▁called	-7.68037
▁sign	-7.68702
▁question	-7.69524
▁information	-7.69753
▁person	-7.70126
▁dial	-7.70292
▁issue	-7.70511
▁press	-7.71134
▁hours	-7.71975
▁access	-7.73065
▁screen	-7.73199
▁pull	-7.73551
▁down	-7.7361
▁page	-7.73812
▁were	-7.73946
▁port	-7.74289
▁last	-7.74701
▁password	-7.74741
▁available	-7.74782
▁plan	-7.75073
▁ask	-7.7508
▁code	-7.75513
▁even	-7.75654
▁too	-7.75732
▁since	-7.76017
▁looking	-7.762
▁ring	-7.76713
▁show	-7.76757
email	-7.77857
▁routing	-7.77952
▁ticket	-7.77977
▁system	-7.78005
▁fine	-7.80142
▁basically	-7.80998
▁saying	-7.82157
▁billing	-7.83549
▁getting	-7.83614
▁forward	-7.85518
▁guess	-7.85551
[	-7.85634
]	-7.85634
▁perfect	-7.85814
▁test	-7.87506
▁sent	-7.87611
▁someone	-7.87778
▁center	-7.88009
▁mobile	-7.88496
▁tried	-7.88531
▁answer	-7.89679
▁him	-7.90347
▁receive	-7.92216
▁am	-7.92893
▁minutes	-7.93618
▁tell	-7.94144
▁zero	-7.94316
▁understand	-7.94538
▁done	-7.95345
▁contact	-7.95575
▁madam	-7.97039
▁wanna	-7.98028
▁reach	-7.98049
▁start	-7.98942
▁desk	-7.99285
▁provide	-8.00871
▁having	-8.01073
▁his	-8.01415
▁these	-8.0486
▁everything	-8.04894
▁options	-8.05208
▁device	-8.05676
▁find	-8.05739
▁talk	-8.07478
▁license	-8.07797
▁might	-8.07802
▁wait	-8.08106
▁case	-8.08358
▁update	-8.0842
▁next	-8.09088
▁chrome	-8.09493
▁cellphone	-8.10424
▁assigned	-8.12168
▁pin	-8.12277
▁though	-8.12845
▁join	-8.12923
▁waiting	-8.13301
▁long	-8.13392
e	-8.13436
▁off	-8.13593
▁recording	-8.13763
▁reason	-8.14551
▁browser	-8.14897
▁per	-8.15518
▁link	-8.15699
▁somebody	-8.15751
▁record	-8.16501
▁possible	-8.16852
▁being	-8.17123
▁direct	-8.17653
▁kind	-8.17761
▁porting	-8.18
hum	-8.1803
▁personal	-8.18057
▁um	-8.18668
▁probably	-8.19202
▁yet	-8.19602
a	-8.19687
▁type	-8.20017
▁both	-8.21017
▁while	-8.21526
▁desktop	-8.21558
▁slash	-8.21579
▁phones	-8.21951
▁twenty	-8.22496
▁appreciate	-8.23102
▁currently	-8.23223
▁month	-8.23618
▁come	-8.23959
▁showing	-8.24177
▁caller	-8.24461
▁text	-8.24555
▁own	-8.24763
▁download	-8.24892
▁operator	-8.25531
▁remove	-8.25881
▁side	-8.26842
▁create	-8.27153
▁left	-8.27565
▁keep	-8.28322
▁leave	-8.28386
▁button	-8.29317
▁confirm	-8.30094
▁lot	-8.30169
▁pro	-8.31226
▁trial	-8.31811
▁little	-8.32345
▁customer	-8.32904
▁definitely	-8.33003
▁either	-8.33132
▁won	-8.33291
▁every	-8.33411
▁than	-8.3541
▁seeing	-8.35501
▁participants	-8.35714
▁asking	-8.35719
▁logged	-8.35883
▁select	-8.36221
▁profile	-8.36299
▁added	-8.36762
▁few	-8.36999
▁id	-8.37522
▁operators	-8.37817
▁went	-8.38638
▁local	-8.38963
r	-8.3914
▁looks	-8.39534
▁talking	-8.40218
▁works	-8.40571
▁ten	-8.41158
▁point	-8.41457
▁greeting	-8.41468
▁mentioned	-8.41486
▁contacts	-8.4164
▁care	-8.41745
▁connected	-8.42074
▁believe	-8.42488
▁goes	-8.42567
▁hang	-8.42814
▁each	-8.43114
▁whatever	-8.43116
▁login	-8.43484
▁transfer	-8.44069
▁stay	-8.44111
▁web	-8.45376
▁coming	-8.4616
▁checking	-8.46401
▁happened	-8.4749
▁carrier	-8.47664
▁hundred	-8.47696
i	-8.4882
▁speaking	-8.48986
▁part	-8.49456
▁top	-8.50146
▁questions	-8.50844
▁application	-8.5114
▁enter	-8.51173
▁place	-8.51252
▁feature	-8.5171
▁always	-8.5212
▁exactly	-8.52499
▁order	-8.53375
▁automatically	-8.53415
▁hit	-8.54061
▁worries	-8.54272
▁soon	-8.55029
▁directly	-8.55166
▁quick	-8.55244
▁things	-8.56042
▁instead	-8.56148
▁internet	-8.56657
▁specific	-8.56727
▁assign	-8.57149
▁sales	-8.57182
▁room	-8.57185
▁website	-8.57379
▁delete	-8.57568
▁close	-8.57793
▁earlier	-8.57824
o	-8.58105
▁many	-8.58281
▁man	-8.59738
▁process	-8.59913
▁best	-8.60295
▁headset	-8.60592
▁voice	-8.60932
▁microphone	-8.61263
▁within	-8.61363
▁haven	-8.61528
▁area	-8.61753
▁most	-8.6209
▁nothing	-8.62117
▁list	-8.62233
▁shows	-8.6253
▁standard	-8.62835
▁setting	-8.6424
▁awesome	-8.64423
▁cannot	-8.64425
▁home	-8.6485
▁example	-8.66222
▁happen	-8.67243
▁upgrade	-8.67255
▁couple	-8.67455
▁assist	-8.6769
▁error	-8.6774
▁minute	-8.67949
▁departments	-8.68102
▁licenses	-8.68103
▁figure	-8.695
▁reset	-8.69965
▁missed	-8.70047
▁told	-8.70465
▁share	-8.70617
▁group	-8.70753
▁cancel	-8.7085
▁devices	-8.71022
▁follow	-8.72413
▁allow	-8.72696
▁connect	-8.72724
▁comes	-8.73044
▁refresh	-8.73173
▁sounds	-8.73226
▁forwarding	-8.73365
▁cool	-8.73701
▁days	-8.74164
▁sending	-8.74355
▁course	-8.74776
▁default	-8.74846
▁seems	-8.74877
▁paid	-8.75079
▁file	-8.75439
▁menu	-8.75525
▁choose	-8.75552
▁search	-8.75647
▁made	-8.75917
▁used	-8.75958
▁happening	-8.76072
▁active	-8.76394
▁thirty	-8.76425
▁response	-8.76482
▁yesterday	-8.76595
▁double	-8.77277
▁network	-8.77722
▁toll	-8.77821
!	-8.7828
▁real	-8.78972
▁never	-8.79003
▁issues	-8.79682
▁icon	-8.7995
▁video	-8.79959
▁reaching	-8.80258
▁seconds	-8.80483
▁tier	-8.80664
▁polycom	-8.807
▁verify	-8.81072
▁bottom	-8.81233
▁apologize	-8.81292
▁pay	-8.81397
▁portal	-8.81802
▁pretty	-8.81918
▁unfortunately	-8.82337
▁better	-8.8285
▁morning	-8.83362
▁additional	-8.8342
▁ringing	-8.8423
▁speak	-8.84566
▁connection	-8.85662
▁wrong	-8.85972
▁date	-8.86107
▁whole	-8.86191
▁usually	-8.86283
l	-8.86367
▁via	-8.87072
▁ported	-8.87153
▁happens	-8.87233
▁pick	-8.87549
▁bit	-8.88527
▁iphone	-8.89234
▁outbound	-8.89422
▁stuff	-8.89518
▁thought	-8.89884
▁current	-8.90168
▁however	-8.91638
▁itself	-8.91767
▁gave	-8.92165
▁means	-8.92287
▁ago	-8.9246
▁mute	-8.9246
▁asked	-8.92853
▁edit	-8.93049
▁charge	-8.93555
▁messages	-8.94492
▁supposed	-8.94542
▁lines	-8.94912
▁later	-8.95192
▁making	-8.95358
▁around	-8.95392
▁enable	-8.95734
▁version	-8.95813
▁started	-8.95858
▁recorded	-8.96268
▁fax	-8.9627
▁notification	-8.96301
ing	-8.96519
▁drop	-8.96584
▁hd	-8.96809
▁scroll	-8.97382
▁mind	-8.99603
▁routed	-8.99668
▁data	-9.008
▁sense	-9.01415
▁sec	-9.01602
▁regarding	-9.02401
▁old	-9.02503
▁remember	-9.03152
▁gotcha	-9.03396
▁away	-9.03432
c	-9.03434
▁status	-9.0429
▁extension	-9.04335
▁ready	-9.04483
▁invite	-9.04744
▁received	-9.0491
▁signed	-9.0537
▁year	-9.05402
▁enabled	-9.05679
p	-9.05687
▁wondering	-9.06215
▁created	-9.06821
▁associated	-9.0702
▁screenshot	-9.07268
▁turn	-9.07341
▁forty	-9.07907
▁came	-9.08099
▁switch	-9.08113
▁until	-9.08563
▁organizer	-9.08808
▁whenever	-9.08877
▁changes	-9.09177
▁g	-9.09613
▁without	-9.09704
▁details	-9.09783
▁audio	-9.10254
▁c	-9.10317
▁laptop	-9.10412
▁needs	-9.10513
▁fifty	-9.1105
▁wifi	-9.12175
▁separate	-9.12226
▁far	-9.12246
▁gmail	-9.12394
▁forwarded	-9.12772
▁telling	-9.13029
▁meeting	-9.13534
▁fix	-9.13619
▁mac	-9.13695
▁further	-9.14839
▁changed	-9.1496
▁ip	-9.15004
▁taking	-9.15798
▁continue	-9.16261
▁week	-9.16584
y	-9.16869
▁ever	-9.17638
▁monthly	-9.17667
▁third	-9.18045
▁needed	-9.18219
▁everybody	-9.18388
▁move	-9.18689
▁receiving	-9.1947
▁myself	-9.19557
▁sometimes	-9.19698
▁box	-9.19706
▁alrighty	-9.19731
▁save	-9.1986
▁thinking	-9.20934
▁play	-9.21067
▁charles	-9.21143
▁kinda	-9.21302
▁automated	-9.21404
▁customers	-9.21599
▁purchase	-9.21691
▁product	-9.21781
▁windows	-9.21792
▁longer	-9.22524
▁times	-9.22724
▁during	-9.23146
▁logging	-9.23226
▁accounts	-9.2344
▁provided	-9.24013
▁logs	-9.24042
▁reply	-9.24359
▁mainline	-9.2586
▁agent	-9.2596
▁shared	-9.26055
▁least	-9.26216
▁route	-9.27086
▁below	-9.27106
▁checked	-9.2714
▁microsoft	-9.27387
▁schedule	-9.27483
▁multiple	-9.27904
▁adding	-9.27921
▁international	-9.27951
▁online	-9.28178
▁walk	-9.2904
▁based	-9.29042
▁deleted	-9.30391
▁actual	-9.30684
▁tone	-9.31346
▁upload	-9.31351
▁bill	-9.31919
▁charged	-9.31961
▁clear	-9.31983
▁tab	-9.32275
▁read	-9.32527
▁concern	-9.32557
▁ryan	-9.32702
▁plus	-9.33005
▁listen	-9.3313
h	-9.3347
▁regards	-9.33599
▁manually	-9.33801
▁inbound	-9.34304
▁queue	-9.34552
▁chat	-9.34717
▁paying	-9.35247
▁cost	-9.35414
▁nice	-9.35536
▁anyway	-9.35967
▁found	-9.37208
▁wonderful	-9.37637
▁analytics	-9.3767
▁camera	-9.3786
▁updated	-9.3799
▁x	-9.37999
▁everyone	-9.38212
▁$20	-9.38527
▁telephony	-9.39373
▁hope	-9.39483
▁dialing	-9.39708
▁between	-9.40178
▁view	-9.4076
▁depends	-9.40942
▁night	-9.40977
▁incoming	-9.41193
▁bar	-9.41232
▁full	-9.4129
▁url	-9.41681
▁agents	-9.41782
▁matter	-9.41931
▁rings	-9.42053
▁happy	-9.42444
▁safe	-9.4251
▁giving	-9.42725
▁anymore	-9.42828
▁saw	-9.42843
▁fourteen	-9.43101
▁setup	-9.43295
▁escalate	-9.43428
▁pricing	-9.43711
▁integration	-9.44
▁jeff	-9.44489
▁site	-9.44748
▁music	-9.44837
▁suggest	-9.44972
▁reached	-9.45534
▁pm	-9.45612
▁tomorrow	-9.45613
▁features	-9.45636
▁upper	-9.46155
ed	-9.46265
▁answering	-9.46411
▁participant	-9.46462
▁mark	-9.46642
▁control	-9.46809
▁auto	-9.46934
▁yourself	-9.47092
▁client	-9.47218
▁member	-9.47687
▁disconnected	-9.47731
▁blue	-9.47807
▁disturb	-9.47876
▁front	-9.49253
▁given	-9.49633
▁regular	-9.50234
▁existing	-9.50551
▁mike	-9.51296
▁p	-9.51308
▁makes	-9.51798
▁john	-9.51859
▁domain	-9.51943
▁speaker	-9.52314
▁difference	-9.52372
▁feel	-9.53001
▁sound	-9.5331
▁note	-9.53311
▁pop	-9.53595
▁vi	-9.53615
▁transferred	-9.53667
▁copy	-9.54022
▁hour	-9.5423
▁removed	-9.54527
▁run	-9.54634
▁submit	-9.5465
▁guy	-9.54672
▁fifteen	-9.55331
▁referring	-9.55458
▁telephone	-9.5552
▁fernando	-9.55832
▁normally	-9.5596
▁salesforce	-9.56271
▁anytime	-9.56348
▁automatic	-9.56712
▁registered	-9.56715
▁heard	-9.56999
▁live	-9.57103
▁key	-9.57246
▁services	-9.58109
▁server	-9.58652
▁past	-9.58735
▁unless	-9.58946
▁h	-9.59577
▁provider	-9.59879
▁weird	-9.59912
▁previous	-9.59916
▁offer	-9.60027
▁l	-9.60094
▁party	-9.60604
u	-9.61139
▁cancelled	-9.61429
▁joining	-9.61626
▁manager	-9.62128
▁steps	-9.62463
▁word	-9.62529
▁bear	-9.62628
▁android	-9.62694
▁straight	-9.6348
▁software	-9.63501
▁picture	-9.63545
g	-9.63581
▁totally	-9.63591
▁worry	-9.63839
▁refund	-9.63946
▁info	-9.64028
▁monday	-9.64171
▁god	-9.64409
▁rest	-9.64858
▁complete	-9.6486
▁1:00	-9.65137
▁spoke	-9.65181
▁wow	-9.65273
▁window	-9.65632
▁tech	-9.66
▁big	-9.66032
▁idea	-9.66319
▁card	-9.66373
▁nope	-9.66527
▁summary	-9.66727
▁answered	-9.67122
▁ending	-9.67716
▁canada	-9.68138
▁quite	-9.68209
▁hopefully	-9.68344
▁inbox	-9.68418
▁payment	-9.69203
▁sort	-9.69279
▁mine	-9.69425
▁bad	-9.69627
▁nobody	-9.69773
▁recent	-9.70347
▁report	-9.7072
▁stop	-9.70887
▁instructions	-9.71019
▁b	-9.71382
▁certain	-9.71584
▁step	-9.71825
▁disconnect	-9.71982
▁joined	-9.72176
▁conferences	-9.72198
up	-9.72367
▁history	-9.7284
▁rather	-9.72914
▁security	-9.73062
▁normal	-9.73134
▁clients	-9.7342
▁selected	-9.73465
▁level	-9.73664
▁assistance	-9.73884
▁model	-9.73901
▁recommend	-9.741
▁fallback	-9.75165
▁deal	-9.75182
▁explain	-9.75253
▁completely	-9.75557
▁correctly	-9.75603
▁absolutely	-9.75622
▁david	-9.75851
▁clicked	-9.75858
▁extra	-9.75902
▁fixed	-9.76411
▁repeat	-9.76442
▁provision	-9.76675
▁scheduled	-9.77116
▁noticed	-9.77213
▁install	-9.77289
▁moving	-9.77335
▁gets	-9.77609
▁duration	-9.77624
▁aside	-9.77752
▁k	-9.77979
▁particular	-9.78011
▁hand	-9.78132
▁dialed	-9.78154
▁outside	-9.78254
▁pending	-9.78327
▁anyone	-9.78801
▁purchased	-9.7884
▁activate	-9.79441
▁evening	-9.79448
▁limit	-9.79692
▁confused	-9.79833
▁simply	-9.79907
▁primary	-9.80065
▁easy	-9.80465
▁running	-9.80625
▁respond	-9.80998
▁quality	-9.81161
▁section	-9.81617
▁downloaded	-9.81629
▁hearing	-9.8167
▁sell	-9.81786
▁talked	-9.81879
▁took	-9.82309
▁cell	-9.82654
▁lead	-9.83184
▁turned	-9.83487
suite	-9.83595
▁chris	-9.83603
▁escalated	-9.83655
▁color	-9.8367
▁corner	-9.83801
▁technically	-9.83803
▁patiently	-9.83968
▁sharing	-9.8405
▁several	-9.84132
▁trouble	-9.8433
▁external	-9.84629
▁taxes	-9.85051
▁country	-9.85134
▁enough	-9.85722
▁state	-9.85875
▁sam	-9.86494
▁dollars	-9.86579
▁entire	-9.86652
▁letting	-9.86841
▁busy	-9.87083
▁michael	-9.87686
▁sixty	-9.87854
▁unable	-9.8794
▁hard	-9.88008
▁j	-9.88177
▁michelle	-9.88286
▁reference	-9.88286
▁review	-9.88367
▁miss	-9.88379
▁mary	-9.88461
▁callers	-9.88899
▁confirmation	-9.88982
▁conferencing	-9.89117
▁goodbye	-9.89155
▁whether	-9.89155
▁friday	-9.89242
▁must	-9.89686
▁submitted	-9.90474
▁takes	-9.90522
▁listed	-9.90713
▁rob	-9.91167
▁testing	-9.91459
▁putting	-9.91499
▁bring	-9.91788
▁proceed	-9.91967
▁none	-9.92291
▁touch	-9.92426
▁activated	-9.92516
▁period	-9.92528
▁display	-9.92781
▁gone	-9.93324
▁location	-9.93565
▁unlimited	-9.93801
▁wants	-9.94685
▁signing	-9.94749
▁count	-9.94834
▁months	-9.9495
▁restart	-9.95162
▁fee	-9.95274
▁directory	-9.95837
▁timezone	-9.96207
▁gives	-9.96355
▁installed	-9.96822
▁inconvenience	-9.96865
▁job	-9.96943
▁fill	-9.9716
▁total	-9.97187
▁clicking	-9.9719
▁completed	-9.97337
▁obviously	-9.97338
▁activation	-9.97432
▁missing	-9.97541
▁future	-9.97717
▁law	-9.97863
▁credit	-9.97904
▁starting	-9.97906
▁maximum	-9.97919
▁f	-9.97929
▁helpful	-9.9815
▁fees	-9.98235
▁manage	-9.98427
▁sample	-9.98593
▁gear	-9.98673
▁buy	-9.98762
▁annual	-9.98766
▁exact	-9.98862
▁boss	-9.98865
▁cut	-9.99062
▁properly	-9.99444
▁firmware	-9.99638
▁forgot	-9.99638
▁d	-9.99723
▁recordings	-10.0033
▁important	-10.0043
▁notice	-10.0047
▁feedback	-10.0051
b	-10.0056
▁requested	-10.0069
▁conversation	-10.0096
▁w	-10.0106
▁twelve	-10.013
▁centers	-10.0132
▁reboot	-10.0133
▁require	-10.02
▁prompt	-10.0204
▁apple	-10.0212
▁billed	-10.025
▁enterprise	-10.0257
▁problems	-10.0262
▁handling	-10.0279
▁unmute	-10.0282
▁v	-10.0323
▁individual	-10.0325
▁arrow	-10.0351
▁years	-10.0362
▁investigate	-10.0373
▁almost	-10.0379
▁disable	-10.0474
▁wish	-10.0491
▁middle	-10.0522
▁amount	-10.0525
▁brian	-10.0534
▁upon	-10.0543
▁changing	-10.0573
▁worked	-10.0576
▁easier	-10.0604
▁spell	-10.0623
▁anywhere	-10.0635
▁somewhere	-10.0635
▁inside	-10.0656
▁price	-10.0681
▁include	-10.0687
v	-10.0709
▁joe	-10.0711
▁program	-10.0757
▁experience	-10.076
▁anybody	-10.0761
▁net	-10.0776
▁tax	-10.0862
▁understanding	-10.0888
▁hoping	-10.093
▁wanting	-10.0975
▁money	-10.0994
▁mail	-10.0997
▁saved	-10.1022
▁following	-10.1129
▁seventy	-10.1157
▁basic	-10.118
▁included	-10.1186
x	-10.125
▁store	-10.1255
▁$15	-10.1267
▁invoice	-10.1295
▁technical	-10.1299
▁single	-10.13
▁secondary	-10.1322
▁administrator	-10.1362
▁ipad	-10.1366
▁keeps	-10.1397
▁purposes	-10.1406
▁costs	-10.1406
▁letter	-10.1421
▁lost	-10.1422
▁delay	-10.144
▁percent	-10.1445
▁pass	-10.1494
▁yearly	-10.1513
▁kindly	-10.1515
▁plug	-10.1518
k	-10.154
▁above	-10.1547
▁assistant	-10.1558
▁clarify	-10.1591
▁weeks	-10.162
▁username	-10.1649
▁somehow	-10.1649
▁thousand	-10.1661
▁notifications	-10.1667
▁twice	-10.1707
▁eighty	-10.171
▁ability	-10.1714
▁seen	-10.1742
▁employees	-10.1746
▁recently	-10.1754
▁prefer	-10.1776
▁outgoing	-10.1788
▁verification	-10.1835
▁general	-10.1846
▁located	-10.1853
▁texting	-10.1867
▁pulling	-10.1885
▁platform	-10.1922
▁members	-10.1936
▁voicemails	-10.1956
▁locate	-10.1982
▁afternoon	-10.1988
▁pad	-10.2001
▁experiencing	-10.2047
▁echo	-10.207
▁beside	-10.207
▁upgraded	-10.2079
▁creating	-10.2083
▁contract	-10.2113
▁san	-10.2115
▁calendar	-10.2115
▁advanced	-10.2126
▁honest	-10.213
▁weekend	-10.214
▁provisioning	-10.2145
▁house	-10.2146
▁bunch	-10.2155
▁philippines	-10.2176
▁mr	-10.2204
▁less	-10.2235
▁block	-10.2236
▁minimum	-10.224
▁finished	-10.2248
▁advance	-10.2258
▁providing	-10.2277
▁whoever	-10.2301
▁gabrielle	-10.2313
▁including	-10.2314
▁power	-10.2353
▁star	-10.2354
▁supported	-10.2375
▁fact	-10.2404
▁sms	-10.2419
▁holding	-10.2422
▁permission	-10.2427
▁landline	-10.2437
▁lower	-10.2446
▁appear	-10.245
▁pulled	-10.2484
▁true	-10.2499
▁obihai	-10.2512
▁love	-10.2556
▁sync	-10.2563
▁kevin	-10.2574
▁push	-10.2597
▁callback	-10.2601
▁r	-10.2645
▁meet	-10.2695
▁employee	-10.2696
▁especially	-10.2701
▁article	-10.2708
▁rid	-10.2746
▁meaning	-10.2753
▁rang	-10.2779
▁eastern	-10.2783
▁appears	-10.2788
▁closed	-10.2789
▁small	-10.279
▁half	-10.2791
com	-10.2806
▁paul	-10.2814
▁bought	-10.2816
▁frank	-10.2842
▁reserve	-10.2861
▁transcript	-10.2865
▁sarah	-10.2881
▁notes	-10.2884
▁pool	-10.291
▁eleven	-10.292
▁patience	-10.2933
▁losing	-10.2959
▁fall	-10.297
▁sprint	-10.3024
▁hubspot	-10.3025
▁digit	-10.3031
▁gray	-10.3051
▁router	-10.3056
▁$7	-10.3064
▁successfully	-10.3104
▁uk	-10.3151
▁logo	-10.3165
▁air	-10.3167
▁credits	-10.3183
▁green	-10.3187
▁edison	-10.3197
▁ringcentral	-10.3197
▁representative	-10.32
▁updates	-10.3201
▁spam	-10.3202
▁connecting	-10.3231
▁breaking	-10.3238
▁management	-10.3265
▁anyways	-10.3283
w	-10.3287
▁export	-10.329
:00	-10.34
▁ended	-10.3402
▁speakers	-10.3405
▁required	-10.341
▁accept	-10.3412
▁simple	-10.3466
▁lou	-10.3481
▁blocked	-10.3484
▁subscription	-10.3497
▁planning	-10.351
▁ninety	-10.3511
▁seem	-10.3531
▁familiar	-10.3579
▁white	-10.3589
▁solution	-10.359
▁limited	-10.3599
▁allowed	-10.3612
▁dashboard	-10.3636
▁resolved	-10.364
▁o	-10.3674
▁looked	-10.3678
▁together	-10.3734
▁onto	-10.375
▁specifically	-10.3763
▁launch	-10.3781
▁dash	-10.3804
▁integrate	-10.3812
▁immediately	-10.3819
▁ivr	-10.3819
▁cutting	-10.3834
▁configure	-10.3841
▁initial	-10.3862
▁depending	-10.3877
▁companies	-10.3878
▁dan	-10.3883
▁register	-10.3888
▁offices	-10.3888
▁simultaneous	-10.389
▁possibly	-10.3891
▁andrew	-10.3964
▁remote	-10.3977
▁patient	-10.3994
▁gotta	-10.4022
▁red	-10.4044
▁rate	-10.4062
▁lose	-10.4092
▁dialer	-10.4113
▁hotline	-10.4167
▁july	-10.4182
▁matt	-10.4183
▁quickly	-10.4184
▁track	-10.4202
▁alex	-10.4209
▁steve	-10.4263
▁mp	-10.4278
▁low	-10.4279
▁nancy	-10.4286
▁super	-10.4301
▁intelligence	-10.4301
▁host	-10.4318
▁interesting	-10.4331
▁finish	-10.4344
▁pacific	-10.4347
▁instance	-10.4355
▁loading	-10.4362
▁scott	-10.4376
▁taken	-10.438
▁panel	-10.4382
▁chance	-10.4385
▁church	-10.4391
▁assume	-10.4415
▁cable	-10.4416
▁charges	-10.4421
▁head	-10.4426
▁owner	-10.4434
▁tap	-10.445
▁replace	-10.4536
▁themselves	-10.4543
▁city	-10.4559
▁meantime	-10.4562
▁situation	-10.4574
▁duty	-10.4579
▁literally	-10.462
▁voip	-10.462
▁troubleshooting	-10.4621
▁except	-10.4651
▁aware	-10.4661
▁answers	-10.4678
▁robert	-10.4691
▁terms	-10.4748
▁eric	-10.482
▁circle	-10.4856
▁such	-10.4871
▁factory	-10.4887
▁communication	-10.4892
▁mariano	-10.4902
▁background	-10.4902
ly	-10.4929
▁load	-10.4932
▁invitation	-10.4936
▁glad	-10.495
▁shift	-10.495
▁causing	-10.4966
▁car	-10.497
▁high	-10.4982
▁field	-10.4982
▁sean	-10.4983
▁sunday	-10.4985
▁words	-10.4991
▁apply	-10.4994
▁june	-10.5014
▁south	-10.5014
▁cycle	-10.5019
▁base	-10.5029
▁transferring	-10.5062
▁messaging	-10.5078
▁supervisor	-10.5084
▁longest	-10.5095
▁blank	-10.5143
▁custom	-10.516
▁muted	-10.5177
▁decide	-10.5218
▁$30	-10.5225
▁12:00	-10.5242
▁linked	-10.525
▁april	-10.5258
▁book	-10.5265
▁uninstall	-10.5272
▁advice	-10.5274
▁inform	-10.5277
▁due	-10.5308
▁physical	-10.5324
▁vvx	-10.5341
▁write	-10.5355
▁jennifer	-10.5357
▁life	-10.5367
▁india	-10.5385
▁wireless	-10.5407
▁original	-10.5407
▁uber	-10.5449
▁reinstall	-10.5472
f	-10.5474
▁boy	-10.549
▁tickets	-10.5515
▁sitting	-10.5525
▁shortly	-10.5525
▁lock	-10.5543
▁interface	-10.5559
▁school	-10.5568
▁filter	-10.5572
▁signal	-10.559
▁opening	-10.56
▁likely	-10.5609
▁kept	-10.561
▁contacting	-10.561
▁generate	-10.562
▁march	-10.5627
▁avoid	-10.5644
▁plans	-10.5647
▁central	-10.5661
▁forth	-10.5668
▁privacy	-10.5695
▁outlook	-10.5719
▁otherwise	-10.5782
▁tested	-10.5795
▁gotten	-10.5799
▁related	-10.5817
▁confirmed	-10.5824
▁credentials	-10.5845
▁round	-10.5851
▁configuration	-10.5853
▁downgrade	-10.5862
▁internal	-10.5869
▁necessarily	-10.5869
▁paste	-10.587
▁uploaded	-10.5872
▁reception	-10.5886
▁fast	-10.589
er	-10.5897
▁volume	-10.5904
▁previously	-10.594
▁picked	-10.5961
▁ends	-10.5964
▁wonder	-10.5972
▁guide	-10.5989
▁addresses	-10.5997
▁along	-10.6029
▁grace	-10.6063
▁accessing	-10.6068
▁pleasure	-10.6153
▁hung	-10.6171
▁csv	-10.6171
▁reading	-10.6175
▁reactivate	-10.6182
▁pc	-10.6229
▁document	-10.6234
▁figured	-10.6236
▁ios	-10.625
▁enjoy	-10.6259
▁robin	-10.628
▁assuming	-10.6298
▁maria	-10.6307
▁showed	-10.633
▁marissa	-10.6353
▁release	-10.6364
▁plugged	-10.6371
▁u	-10.6376
▁brand	-10.6389
▁attached	-10.6445
▁disabled	-10.6457
▁short	-10.648
▁ethernet	-10.6482
▁1	-10.6531
▁invited	-10.6553
▁strange	-10.6554
▁shoot	-10.6556
▁allowing	-10.6584
▁navigate	-10.6587
▁doubt	-10.6593
▁samples	-10.6629
▁picking	-10.664
▁countries	-10.667
▁james	-10.6692
▁fuse	-10.6727
▁honestly	-10.6727
▁crazy	-10.6784
▁incognito	-10.6784
▁input	-10.68
▁states	-10.6824
▁dropped	-10.6842
▁typing	-10.6842
▁backup	-10.6847
▁entered	-10.6849
▁monitor	-10.686
▁coaching	-10.6862
▁downloading	-10.6876
3	-10.6886
▁manual	-10.69
▁beginning	-10.69
▁space	-10.6903
▁fully	-10.6914
▁integrated	-10.6929
▁versus	-10.6958
▁staff	-10.6962
▁colleague	-10.6963
▁partner	-10.6963
▁forget	-10.6979
▁photo	-10.6982
▁handle	-10.6993
▁daniel	-10.6996
▁regardless	-10.7017
▁peter	-10.7037
▁august	-10.7056
▁decided	-10.7065
▁capital	-10.7102
▁expect	-10.7114
▁usb	-10.7115
▁eighteen	-10.7135
▁records	-10.7136
▁excellent	-10.7155
▁jack	-10.7158
▁title	-10.718
▁anna	-10.7192
▁api	-10.7204
▁moved	-10.7207
▁resolve	-10.7209
▁force	-10.7222
▁co	-10.7234
▁incorrect	-10.7235
▁apparently	-10.7255
▁behalf	-10.7276
▁initially	-10.7276
▁late	-10.7284
▁tied	-10.7319
▁placed	-10.7325
▁confusing	-10.7336
▁function	-10.7349
▁obi	-10.7358
▁noise	-10.7368
▁francis	-10.7378
▁task	-10.7386
▁guarantee	-10.739
▁helping	-10.7391
▁latest	-10.7398
▁wife	-10.74
▁friend	-10.7409
▁cloud	-10.7422
▁cold	-10.7438
▁upcoming	-10.7459
▁catch	-10.746
▁property	-10.75
▁canceled	-10.7506
▁adam	-10.7529
▁return	-10.7539
▁tuesday	-10.7541
▁wherever	-10.7541
▁justin	-10.7545
▁fortunately	-10.7582
▁instruction	-10.7598
▁match	-10.7601
▁sit	-10.7606
▁requires	-10.7629
▁communicate	-10.7638
▁opened	-10.7643
▁pre	-10.7647
▁loa	-10.7656
▁batch	-10.7666
▁con	-10.767
▁kelly	-10.7687
▁shut	-10.7708
▁mode	-10.7717
▁servicetitan	-10.7717
▁light	-10.7724
▁registration	-10.7729
▁marketing	-10.7729
▁charlie	-10.775
▁edge	-10.775
th	-10.7762
▁begin	-10.7788
▁friends	-10.78
▁recognize	-10.7804
▁removing	-10.7814
▁backend	-10.7835
▁playing	-10.7841
0	-10.7845
▁nick	-10.7877
▁iris	-10.7894
▁jay	-10.7896
▁jamie	-10.7899
▁switched	-10.7903
▁shit	-10.7907
▁native	-10.7916
▁euro	-10.792
▁allison	-10.7927
▁elroy	-10.7963
▁random	-10.7983
▁tool	-10.8001
▁toggle	-10.8024
▁series	-10.8028
▁unavailable	-10.8028
▁pound	-10.803
▁locked	-10.8051
▁stuck	-10.8072
▁receipt	-10.8073
▁speed	-10.8089
▁ashley	-10.8094
▁prompted	-10.8117
▁confusion	-10.8137
▁sandy	-10.8138
▁bluetooth	-10.8159
▁saturday	-10.8161
▁black	-10.8181
▁5:00	-10.8204
▁training	-10.8271
▁fun	-10.8279
▁difficult	-10.8314
▁skype	-10.8337
▁organization	-10.8345
▁generated	-10.8346
▁curious	-10.8359
▁similar	-10.8362
▁virtual	-10.8382
▁solve	-10.8383
▁requesting	-10.839
▁lawrence	-10.8404
▁jason	-10.8404
▁updating	-10.8404
▁austin	-10.8427
▁erin	-10.8427
▁posted	-10.8428
▁engineering	-10.845
▁simultaneously	-10.845
▁near	-10.8472
▁listening	-10.8524
▁effect	-10.8527
▁purpose	-10.8529
▁insurance	-10.8541
▁piece	-10.8542
▁underneath	-10.8564
▁grab	-10.8576
▁excuse	-10.8609
▁9:00	-10.8633
▁invalid	-10.8656
▁policy	-10.8656
▁verizon	-10.8656
▁knew	-10.8656
▁mouse	-10.8679
▁allows	-10.8696
▁affect	-10.87
▁depend	-10.8739
▁nineteen	-10.8748
▁november	-10.8749
▁cleo	-10.8749
▁built	-10.8775
▁rebooting	-10.8775
▁lee	-10.8787
▁authorization	-10.8795
▁csr	-10.8843
▁entering	-10.8856
▁documentation	-10.8866
▁gosh	-10.8868
▁needing	-10.8882
▁zoom	-10.889
▁dc	-10.8897
▁reserved	-10.8926
▁although	-10.8937
▁bank	-10.8955
▁transcription	-10.8955
▁integrations	-10.8956
▁ivy	-10.8961
▁annually	-10.8961
▁includes	-10.8971
▁self	-10.8985
▁perhaps	-10.9009
▁placing	-10.9033
▁often	-10.9034
▁hardware	-10.9057
▁sale	-10.9071
▁york	-10.908
▁canadian	-10.9081
▁$25	-10.9081
▁tells	-10.9087
▁discount	-10.91
▁victor	-10.9104
▁george	-10.9105
▁titan	-10.9105
▁brief	-10.913
▁tonight	-10.9153
▁world	-10.9158
▁mess	-10.9169
▁buddy	-10.9178
▁considered	-10.9178
▁board	-10.918
▁till	-10.919
▁interested	-10.9202
▁united	-10.9203
▁beta	-10.9231
▁present	-10.9248
▁silence	-10.9251
mobile	-10.9259
▁global	-10.9275
▁comcast	-10.9276
▁inquiry	-10.93
▁higher	-10.9325
▁modem	-10.9335
▁picks	-10.9352
▁slow	-10.9353
▁nicole	-10.9375
▁crm	-10.9381
▁health	-10.9389
▁early	-10.9399
▁$0	-10.9424
▁coordinate	-10.9424
▁executive	-10.945
▁print	-10.9466
▁colleagues	-10.9469
▁plantronics	-10.948
▁dog	-10.9498
▁funny	-10.95
▁personally	-10.9505
▁action	-10.9511
▁extensions	-10.9544
▁visit	-10.9573
▁perfectly	-10.9607
▁temporary	-10.9627
▁verified	-10.9652
▁failed	-10.9652
▁private	-10.9703
▁stopped	-10.9703
▁fresh	-10.9728
▁across	-10.9754
▁media	-10.9764
▁reps	-10.9765
▁initiate	-10.9777
▁encounter	-10.9778
▁range	-10.9789
▁pops	-10.9831
▁greg	-10.9832
▁finally	-10.9832
▁demo	-10.9868
▁ongoing	-10.9884
▁resend	-10.9884
▁holiday	-10.9922
▁format	-10.9923
▁llc	-10.9927
▁public	-10.9931
▁land	-10.9932
▁building	-10.9946
▁compatible	-10.9989
▁mostly	-10.9992
▁california	-11.0042
▁cash	-11.0068
▁leaving	-11.0069
▁covid	-11.0096
▁adapter	-11.0122
▁handled	-11.0132
▁senior	-11.0136
▁allen	-11.0139
▁according	-11.0149
▁prior	-11.0149
▁legal	-11.015
▁solutions	-11.0157
▁unplug	-11.0175
▁drive	-11.0213
▁notify	-11.0233
▁agree	-11.0249
▁josh	-11.0255
▁emergency	-11.0257
▁thread	-11.0257
▁finance	-11.0284
▁reporting	-11.0289
▁choice	-11.0309
▁gary	-11.0312
▁wednesday	-11.0313
▁smartphone	-11.0328
▁understood	-11.0339
▁karen	-11.0339
▁concerned	-11.0343
▁pressing	-11.0347
▁break	-11.035
▁clean	-11.0363
▁troubleshoot	-11.0365
▁urgent	-11.0366
▁4:00	-11.0366
▁pickup	-11.0371
▁reflect	-11.0412
▁september	-11.0421
▁texas	-11.0421
▁term	-11.0439
▁ad	-11.0454
▁starts	-11.0473
▁english	-11.0477
▁sip	-11.0477
▁assigning	-11.0492
▁deleting	-11.0504
▁spanish	-11.0504
▁usage	-11.0506
▁carriers	-11.0547
▁accounting	-11.0569
▁learn	-11.0586
▁groups	-11.0588
▁lisa	-11.0644
▁cancellation	-11.0644
▁melissa	-11.0646
▁reactivated	-11.0655
▁safari	-11.0673
▁lady	-11.0701
▁jim	-11.0712
▁prayer	-11.0727
▁refreshing	-11.0743
▁receptionist	-11.0755
▁discuss	-11.0756
▁package	-11.0756
▁thursday	-11.0758
▁reported	-11.0761
▁concerns	-11.0772
▁sixteen	-11.0786
▁laura	-11.0786
▁businesses	-11.0791
▁refreshed	-11.0795
▁shop	-11.0799
▁alone	-11.0815
▁slack	-11.0815
▁idle	-11.0824
▁lease	-11.0897
▁sudden	-11.0901
▁results	-11.0903
2	-11.0912
▁escalation	-11.0931
▁jordan	-11.0931
▁originally	-11.0931
▁stand	-11.0933
▁thirteen	-11.0959
▁lauren	-11.096
▁typically	-11.096
▁rejected	-11.096
▁blocking	-11.0963
▁replicate	-11.0982
▁role	-11.0991
▁restarted	-11.0991
▁configured	-11.1003
▁possibility	-11.1018
▁faxes	-11.1019
▁max	-11.1027
▁ob	-11.1035
▁fault	-11.1046
▁static	-11.1047
▁sick	-11.1048
▁dispatch	-11.1075
▁firefox	-11.1077
▁certainly	-11.1078
▁loop	-11.1099
▁leads	-11.1101
▁triple	-11.1106
▁purge	-11.1129
▁spot	-11.1154
▁2	-11.1184
▁org	-11.1185
hand	-11.1185
▁interrupt	-11.1193
▁size	-11.1223
▁richard	-11.1225
▁scheduling	-11.1255
▁beyond	-11.1285
▁healthy	-11.1286
▁amen	-11.1292
▁folder	-11.1293
▁face	-11.1298
▁portion	-11.1317
▁letters	-11.1323
▁west	-11.1323
▁import	-11.1343
▁essentially	-11.1345
▁kim	-11.1349
▁row	-11.1367
▁merge	-11.1369
▁identify	-11.1374
▁notified	-11.1377
▁older	-11.1378
▁shot	-11.1379
▁capability	-11.1406
▁remotely	-11.1407
▁finding	-11.1411
▁behavior	-11.1437
▁keyboard	-11.1437
▁restarting	-11.1441
▁handset	-11.1446
▁worth	-11.1456
▁cookies	-11.149
▁behind	-11.1498
▁increase	-11.1499
▁fourth	-11.1508
▁content	-11.1515
▁confirming	-11.152
▁research	-11.1527
▁doctor	-11.1542
▁amy	-11.1562
▁cam	-11.157
▁released	-11.1571
▁courier	-11.1572
▁trust	-11.1588
▁grasshopper	-11.159
▁skip	-11.159
▁applied	-11.1591
▁2:00	-11.1591
▁aaron	-11.1621
▁realize	-11.1646
▁quit	-11.1648
▁convert	-11.165
▁provisioned	-11.1656
▁cache	-11.1684
▁fair	-11.1746
▁image	-11.1765
▁choosing	-11.1778
▁directed	-11.1794
▁whatnot	-11.1811
▁event	-11.1816
▁rep	-11.1827
▁affected	-11.1843
▁switching	-11.1852
▁saving	-11.1861
▁focus	-11.1871
▁afraid	-11.1873
▁mailbox	-11.1905
▁recall	-11.1919
▁machine	-11.1924
▁tabs	-11.1957
▁lie	-11.196
▁husband	-11.197
▁emailed	-11.1978
▁database	-11.1989
▁jump	-11.2
▁thomas	-11.2002
▁responded	-11.2005
▁ensure	-11.2019
▁director	-11.2022
▁become	-11.2025
▁fan	-11.2062
▁accurate	-11.2066
▁police	-11.2067
▁meetings	-11.2091
z	-11.2104
▁attendant	-11.2132
▁brought	-11.2165
▁rebooted	-11.2167
▁tablet	-11.2178
▁distance	-11.2184
▁advise	-11.2191
on	-11.2197
▁jessica	-11.2198
▁north	-11.2198
▁pen	-11.225
▁necessary	-11.2264
▁daily	-11.2297
▁upgrading	-11.2297
▁excel	-11.2299
▁ray	-11.2323
▁successful	-11.233
▁october	-11.233
▁alfa	-11.2331
▁christian	-11.234
▁american	-11.2345
▁session	-11.2358
▁dollar	-11.236
▁lunch	-11.2363
▁oscar	-11.2364
▁clearly	-11.2366
▁basis	-11.237
▁eventually	-11.2397
▁stacy	-11.2397
▁monitored	-11.2399
▁meant	-11.2405
▁goal	-11.242
▁method	-11.2427
▁investigation	-11.2431
▁receivable	-11.2431
▁special	-11.2433
▁build	-11.2434
▁filled	-11.2434
▁screenshots	-11.2445
▁odd	-11.2465
▁fifth	-11.2465
▁tim	-11.2471
▁canceling	-11.2481
▁anne	-11.249
▁result	-11.2496
▁caught	-11.2499
▁jeremy	-11.2499
▁headphones	-11.2519
▁activity	-11.2537
▁afterwards	-11.254
▁common	-11.2567
▁fantastic	-11.2601
▁unique	-11.2604
▁cat	-11.2608
▁edward	-11.2633
▁delta	-11.2635
▁street	-11.2644
▁controls	-11.2668
▁console	-11.267
▁timeframe	-11.267
▁stable	-11.2672
▁customize	-11.2698
▁town	-11.2717
▁characters	-11.2718
in	-11.2727
▁seventeen	-11.2739
▁corporate	-11.2739
▁functionality	-11.2739
▁apartment	-11.2741
▁fit	-11.2741
▁processed	-11.2751
check	-11.2754
▁adjustments	-11.2766
▁browsing	-11.2774
▁family	-11.2774
▁operating	-11.2774
▁wide	-11.2775
▁brad	-11.2775
▁watch	-11.2782
▁mistake	-11.2785
▁craig	-11.2809
▁dennis	-11.2809
▁shipping	-11.2809
▁emily	-11.2809
▁q	-11.2815
▁followed	-11.2819
▁suite	-11.2835
▁communications	-11.2837
▁britney	-11.2879
▁florida	-11.2881
▁scenario	-11.2882
▁apart	-11.2884
▁bringing	-11.2884
▁frustrating	-11.2915
▁aren	-11.2923
▁partners	-11.2942
▁3:00	-11.295
▁spelled	-11.2953
▁source	-11.2965
▁easily	-11.2986
▁informed	-11.2987
▁uncheck	-11.3021
▁grant	-11.3022
▁boot	-11.3025
▁computers	-11.3055
▁swap	-11.3057
▁10:00	-11.3057
▁complicated	-11.3058
▁detected	-11.3058
▁human	-11.3093
▁bob	-11.3124
▁brings	-11.3133
▁helped	-11.3138
▁tony	-11.3149
▁de	-11.3156
▁visual	-11.3165
▁7:00	-11.3166
▁medical	-11.3176
line	-11.3217
▁searching	-11.3219
▁park	-11.3225
▁east	-11.3238
▁favor	-11.3238
▁dave	-11.3241
▁hr	-11.325
▁digital	-11.3269
▁preferred	-11.3275
▁tries	-11.3275
▁attach	-11.3278
▁erica	-11.3281
▁engaged	-11.3314
▁y	-11.3319
▁everywhere	-11.3349
▁okta	-11.3386
▁empty	-11.3386
▁exit	-11.339
▁keeping	-11.3413
▁ooh	-11.3423
▁promise	-11.3426
▁serve	-11.3427
▁hook	-11.3444
▁staying	-11.3446
▁consider	-11.3458
▁blah	-11.346
▁hooper	-11.3498
▁recommended	-11.3502
▁initials	-11.3534
▁expecting	-11.3538
▁writing	-11.3546
▁$5	-11.356
▁willing	-11.3561
▁hover	-11.3571
▁tango	-11.3573
▁court	-11.3587
▁station	-11.3624
▁road	-11.3641
▁spend	-11.3648
▁frustrated	-11.3649
▁priority	-11.3649
▁folks	-11.3649
▁dedicated	-11.3649
▁syncing	-11.3653
al	-11.3658
▁colon	-11.3659
▁charging	-11.366
▁adjust	-11.3685
▁reopen	-11.3685
▁larry	-11.3687
▁jeffrey	-11.3687
▁uc	-11.3715
▁elizabeth	-11.3725
▁specialist	-11.3725
▁proper	-11.3726
▁boxes	-11.3727
▁refer	-11.3741
▁command	-11.3744
▁determine	-11.3757
▁brandon	-11.3764
▁paper	-11.3779
▁matthew	-11.3781
▁towards	-11.3789
▁assurance	-11.3802
▁closing	-11.3802
▁zendesk	-11.3802
▁ceo	-11.3803
▁dials	-11.3816
▁label	-11.382
▁tree	-11.3824
▁operate	-11.3834
▁products	-11.3858
▁dallas	-11.388
▁julie	-11.3897
▁rules	-11.3918
▁rachel	-11.3919
▁post	-11.3931
▁kick	-11.3949
▁smart	-11.3958
▁spectrum	-11.3958
▁besides	-11.3971
▁limitation	-11.3984
▁selecting	-11.3985
▁promo	-11.4011
▁prevent	-11.4035
▁entirely	-11.4039
▁rick	-11.4054
▁class	-11.4063
▁christine	-11.4077
j	-11.408
▁tracking	-11.408
▁quote	-11.41
▁seat	-11.4111
▁popped	-11.4117
▁sue	-11.412
▁reports	-11.414
▁relay	-11.4156
▁bandwidth	-11.4157
▁cherry	-11.4157
▁stephanie	-11.4157
▁shane	-11.4157
▁tv	-11.4174
▁promotion	-11.4185
▁reminder	-11.4185
▁rates	-11.4187
▁exist	-11.4195
▁worried	-11.4197
▁delivery	-11.4197
▁separately	-11.42
▁pat	-11.421
▁processing	-11.4218
▁ciro	-11.4237
▁jen	-11.424
▁tools	-11.4245
▁ken	-11.4258
▁se	-11.4266
▁appointment	-11.4268
▁anthony	-11.4278
▁imagine	-11.4278
▁accidentally	-11.4278
▁detect	-11.4305
▁attention	-11.4319
▁remain	-11.4349
▁zone	-11.4349
▁$1	-11.4352
▁named	-11.4354
▁joseph	-11.4359
▁caitlin	-11.4359
▁jenny	-11.4359
▁cases	-11.4389
▁ran	-11.4395
▁alpha	-11.44
▁sub	-11.44
▁loaded	-11.4402
▁suspended	-11.4442
▁genius	-11.4453
▁restore	-11.4476
▁suggestion	-11.4476
▁dealing	-11.449
▁final	-11.4518
▁detail	-11.4519
▁responding	-11.4531
▁preferences	-11.4553
▁requirement	-11.4562
▁quiet	-11.4565
▁balance	-11.4566
▁files	-11.4567
▁requirements	-11.457
▁wall	-11.458
▁subject	-11.4607
▁abandoned	-11.4608
▁ship	-11.4621
▁errors	-11.4644
▁attempt	-11.4644
▁catherine	-11.465
▁whichever	-11.4651
▁cleared	-11.4656
▁documents	-11.4668
▁accepted	-11.4694
▁headsets	-11.4723
▁neither	-11.4734
▁heads	-11.4735
▁compared	-11.4739
▁market	-11.4741
▁waste	-11.4754
▁duplicate	-11.4767
▁technology	-11.4777
▁romeo	-11.4777
▁explaining	-11.4784
▁pain	-11.4794
▁william	-11.4805
▁loud	-11.4817
▁language	-11.4818
▁regard	-11.4819
▁smith	-11.482
▁engineers	-11.4836
▁column	-11.4861
▁escalating	-11.4863
▁expected	-11.4864
▁supposedly	-11.4866
▁agency	-11.4868
▁chose	-11.4883
▁die	-11.4902
▁reassign	-11.4903
▁lima	-11.4906
▁eat	-11.4908
▁reasons	-11.4932
▁minimize	-11.4942
▁denise	-11.4949
▁assured	-11.4952
▁jonathan	-11.4992
▁laurie	-11.4992
▁katie	-11.4993
▁everyday	-11.4993
▁entry	-11.5002
▁huge	-11.5036
▁jericho	-11.5036
▁financial	-11.5041
▁linda	-11.5042
▁roll	-11.5042
▁style	-11.508
▁trigger	-11.5082
▁map	-11.5083
▁realized	-11.509
▁approval	-11.5124
▁description	-11.5124
▁expensive	-11.5124
▁presence	-11.5124
▁door	-11.5129
▁ping	-11.5136
▁janell	-11.5138
▁resources	-11.5146
▁utilize	-11.5161
▁trail	-11.5167
▁estate	-11.5168
▁dude	-11.5168
▁fucking	-11.5169
▁carl	-11.5171
▁mistaken	-11.5242
▁experienced	-11.5286
▁firm	-11.53
▁approved	-11.5306
▁soft	-11.5313
▁major	-11.5347
▁utilities	-11.5347
▁eta	-11.5348
▁encountered	-11.5349
▁decision	-11.5352
▁context	-11.5353
▁selling	-11.5355
▁game	-11.5357
▁survey	-11.5358
▁contacted	-11.5375
▁travel	-11.5391
▁resubmit	-11.5392
▁amanda	-11.5392
▁french	-11.5392
▁guest	-11.5392
▁guessing	-11.5398
▁texted	-11.5413
▁$1,	-11.5445
▁girl	-11.5454
▁pardon	-11.5484
▁individually	-11.5485
▁goodness	-11.5486
▁usa	-11.5493
▁unit	-11.5508
▁anonymous	-11.5529
▁jacob	-11.5529
▁digits	-11.553
▁rent	-11.5534
▁verifying	-11.5549
▁codes	-11.5554
time	-11.5573
▁spoken	-11.5591
▁secure	-11.5621
▁ministry	-11.5622
▁danny	-11.5622
▁optional	-11.5625
▁involved	-11.5669
▁installing	-11.5676
▁cord	-11.5679
▁flow	-11.571
▁cc	-11.5713
▁vonage	-11.5715
▁credential	-11.573
▁progress	-11.5762
▁derek	-11.5762
▁purchasing	-11.5764
▁glass	-11.5768
▁project	-11.5777
▁gabriel	-11.5806
▁terry	-11.5809
▁mariana	-11.5809
▁against	-11.5832
▁protection	-11.5857
▁barely	-11.5857
▁prefix	-11.5857
▁dr	-11.5859
▁stream	-11.5866
▁cover	-11.5875
▁headphone	-11.5876
▁luis	-11.5901
▁quarter	-11.5904
▁sandra	-11.5904
▁connectivity	-11.5904
▁design	-11.592
▁driving	-11.5952
▁passcode	-11.5952
▁sorted	-11.5957
▁typed	-11.5964
▁privileges	-11.5977
▁susan	-11.6
▁idol	-11.6
▁sil	-11.6005
▁dongle	-11.605
▁stated	-11.6088
▁expand	-11.6095
▁replied	-11.6097
▁reviewing	-11.6104
▁indicate	-11.6111
▁tie	-11.6114
▁sweet	-11.6146
▁resolution	-11.6146
▁faster	-11.6146
▁knowing	-11.6166
▁fail	-11.6167
▁achieve	-11.6195
▁pdf	-11.6195
▁turning	-11.6211
▁populate	-11.6211
▁buttons	-11.6212
▁non	-11.6237
▁position	-11.6237
▁kate	-11.6244
▁capture	-11.6258
▁la	-11.6268
▁amazing	-11.6294
▁applies	-11.6294
▁vpn	-11.63
▁stick	-11.6317
▁organizers	-11.6331
▁remind	-11.6341
▁redirect	-11.6343
▁reload	-11.6343
▁bravo	-11.6343
▁harry	-11.6343
▁angela	-11.6345
▁mission	-11.6354
▁selection	-11.6368
▁hanging	-11.6375
able	-11.6389
▁fairly	-11.6394
▁steven	-11.6397
▁spent	-11.6403
▁whoa	-11.6405
▁initiated	-11.6407
▁australia	-11.642
▁loan	-11.6428
▁explanation	-11.6444
▁rec	-11.6463
▁biggest	-11.6494
▁dead	-11.6494
▁booking	-11.6528
▁altogether	-11.6545
▁development	-11.6545
▁opposed	-11.6545
▁ball	-11.6592
▁teach	-11.6594
▁productivity	-11.6596
▁knowledge	-11.6597
▁downgraded	-11.6616
▁evan	-11.6633
▁magic	-11.6647
▁december	-11.6647
▁risen	-11.6652
▁eye	-11.6682
▁reject	-11.6698
▁activating	-11.6699
▁communicating	-11.6699
▁natalie	-11.6699
▁college	-11.6699
▁cross	-11.67
▁filters	-11.6703
▁america	-11.6728
gmail	-11.673
▁extend	-11.6747
▁gather	-11.6748
▁physically	-11.6751
to	-11.6761
▁living	-11.6769
▁yahoo	-11.6781
▁wrap	-11.6783
▁applicable	-11.6803
▁resetting	-11.6803
▁apologies	-11.6804
▁metro	-11.6808
▁ports	-11.6813
▁wise	-11.6827
▁$2	-11.6839
▁managed	-11.684
▁square	-11.6848
▁raise	-11.6848
▁marie	-11.685
▁rain	-11.6851
▁mc	-11.6855
▁wired	-11.6861
▁sites	-11.6885
▁mainly	-11.6896
▁sometime	-11.6903
▁jake	-11.6908
▁emailing	-11.6959
▁gentleman	-11.696
▁overconfidence	-11.696
▁proxy	-11.696
▁lord	-11.696
▁gina	-11.6961
▁usual	-11.6961
▁ron	-11.6975
▁core	-11.6977
▁cards	-11.6995
▁alert	-11.7001
▁$10	-11.7001
▁20	-11.7006
▁mix	-11.7012
▁moses	-11.7014
▁parliament	-11.7014
▁designed	-11.7015
▁leading	-11.7022
▁interest	-11.7031
▁warm	-11.7038
or	-11.7048
▁kids	-11.7055
▁deborah	-11.7067
▁tag	-11.7067
▁chatting	-11.7067
▁story	-11.7068
▁choices	-11.7083
es	-11.7094
▁february	-11.7121
▁dropping	-11.7121
▁cording	-11.7122
▁links	-11.7124
▁differently	-11.7141
▁permissions	-11.7165
▁bless	-11.7173
▁written	-11.7175
▁dry	-11.7175
▁dana	-11.7185
▁bus	-11.7196
▁firewall	-11.7214
▁cents	-11.7216
▁symbol	-11.7218
▁offering	-11.7224
▁rebecca	-11.7229
▁trash	-11.7229
▁logan	-11.7238
▁ration	-11.7255
▁valid	-11.7277
▁christina	-11.7284
▁underscore	-11.7284
▁roma	-11.7287
▁county	-11.729
▁wrote	-11.7308
▁lien	-11.7312
▁truck	-11.7329
▁retrieve	-11.7332
▁columbia	-11.7339
▁easiest	-11.7339
▁patrick	-11.7339
▁comfortable	-11.7339
▁dina	-11.7339
▁administrators	-11.7359
▁instances	-11.7361
▁patients	-11.7384
▁channel	-11.7388
▁zip	-11.7394
▁jose	-11.7394
▁popping	-11.7394
▁advised	-11.7406
▁broke	-11.7408
▁events	-11.7417
▁quest	-11.7428
▁stock	-11.743
▁inc	-11.744
▁recommendation	-11.7445
▁barry	-11.745
▁accommodate	-11.7451
▁seats	-11.7466
▁hell	-11.747
▁bridge	-11.7472
▁transaction	-11.7499
▁flash	-11.7503
▁speech	-11.7505
▁gooey	-11.7506
▁driver	-11.7506
▁dnd	-11.7506
▁satisfied	-11.7512
▁played	-11.7515
▁associate	-11.7554
▁train	-11.756
▁maintenance	-11.7562
▁sheena	-11.7562
▁kyle	-11.7562
▁$35	-11.7562
▁explained	-11.7568
▁fire	-11.7593
▁mexico	-11.7618
▁unknown	-11.7618
▁nestor	-11.7618
▁national	-11.762
▁remaining	-11.762
▁deck	-11.7649
▁vice	-11.7661
▁relaunch	-11.7673
▁value	-11.7674
▁temporarily	-11.7675
▁hitting	-11.7676
▁hate	-11.7685
▁wire	-11.7701
▁gate	-11.7704
▁pressed	-11.772
▁grade	-11.7726
▁assessment	-11.7732
▁keys	-11.7733
▁synced	-11.7736
▁beach	-11.7736
▁abby	-11.7737
▁donna	-11.7739
▁skews	-11.7742
▁ma	-11.7746
▁administrative	-11.7785
▁reprovision	-11.7788
▁students	-11.7791
▁parking	-11.7792
▁registering	-11.7795
▁reinstated	-11.7796
▁neil	-11.7806
▁tend	-11.781
▁score	-11.7847
▁eighth	-11.7851
▁articles	-11.7873
▁un	-11.7905
▁summer	-11.7907
▁redo	-11.7914
▁act	-11.7948
▁inquiries	-11.7964
▁francisco	-11.7964
▁availability	-11.7967
▁pointing	-11.8002
▁operations	-11.8004
▁isolate	-11.8016
▁cellular	-11.8023
▁24	-11.8035
▁facebook	-11.8082
▁safety	-11.8082
▁million	-11.8082
▁advantage	-11.8082
▁hot	-11.8115
▁water	-11.8119
▁payments	-11.8139
▁unlock	-11.8139
▁managing	-11.8142
▁unused	-11.8142
▁vacation	-11.8142
▁worse	-11.8142
▁banner	-11.8145
▁displayed	-11.8147
▁disconnecting	-11.8152
▁locations	-11.8188
▁carry	-11.82
▁macbook	-11.8201
▁shannon	-11.8201
▁eddie	-11.8201
▁hotel	-11.8207
-19	-11.8208
▁programs	-11.8221
▁sold	-11.823
▁freaking	-11.8262
▁tina	-11.8262
▁renew	-11.8263
▁bug	-11.8271
▁voter	-11.8271
▁bro	-11.8288
▁query	-11.8322
▁buying	-11.833
▁asian	-11.8345
▁strong	-11.8383
▁liked	-11.8391
▁suggested	-11.8392
▁cap	-11.8421
▁z	-11.8423
▁reinstate	-11.8438
4	-11.844
▁chad	-11.8446
▁interrupting	-11.8447
▁protocol	-11.8453
▁ordered	-11.8466
▁compare	-11.85
▁somewhat	-11.8506
▁$50	-11.8516
▁prompts	-11.8522
▁rock	-11.8555
▁accomplish	-11.8566
▁curtis	-11.8568
▁opportunity	-11.8568
▁cisco	-11.8569
▁france	-11.8569
▁cheaper	-11.8569
▁hesitat	-11.857
▁parameters	-11.8577
▁professional	-11.8581
▁4	-11.8587
▁places	-11.8594
us	-11.8597
an	-11.8616
▁january	-11.8631
▁stephen	-11.8631
▁science	-11.8639
▁clock	-11.8648
▁young	-11.8648
▁virus	-11.8649
▁hands	-11.8652
▁song	-11.8668
▁reconnect	-11.8692
▁daughter	-11.8694
▁coffee	-11.8694
▁limitations	-11.8716
▁inquire	-11.875
▁tiny	-11.8757
▁tracy	-11.8757
▁$90	-11.8757
▁explorer	-11.8759
▁messed	-11.876
▁district	-11.8762
▁conflict	-11.8767
▁leader	-11.8775
▁coworker	-11.8776
▁preference	-11.8777
▁success	-11.8821
▁lightning	-11.8821
▁golf	-11.8822
▁offline	-11.8826
▁operation	-11.8841
▁wherein	-11.8842
▁11	-11.8863
▁internally	-11.8886
▁covered	-11.8886
▁learning	-11.8888
▁martin	-11.889
▁pages	-11.8913
▁path	-11.8928
▁london	-11.8949
▁unassigned	-11.895
▁los	-11.8956
▁direction	-11.8974
▁outage	-11.8981
▁stage	-11.9007
▁11:00	-11.9015
▁impact	-11.902
▁authorized	-11.902
▁forever	-11.903
▁practice	-11.9033
▁vendor	-11.9038
▁managers	-11.9061
▁compliance	-11.9093
▁perform	-11.9143
▁engine	-11.9145
▁confidence	-11.9146
▁washington	-11.9146
▁worst	-11.9146
▁addison	-11.9146
▁kicked	-11.9147
▁walking	-11.9163
man	-11.9182
▁depart	-11.9212
▁brown	-11.9212
▁saint	-11.9212
▁3	-11.9214
▁declined	-11.9217
▁technician	-11.9237
▁dell	-11.9268
▁study	-11.9277
▁cindy	-11.9278
▁facing	-11.9278
▁santa	-11.9279
▁nextiva	-11.9279
▁throughout	-11.928
▁funding	-11.9288
▁organize	-11.9288
▁7	-11.9289
▁estimate	-11.9298
▁interaction	-11.9307
▁invites	-11.9315
▁africa	-11.9322
▁glitch	-11.9344
▁ridiculous	-11.9346
▁constantly	-11.9346
▁bigger	-11.9346
▁trace	-11.9359
▁offers	-11.9364
▁comparison	-11.9413
▁breakdown	-11.9413
▁presentation	-11.9413
▁bypass	-11.9413
▁addition	-11.9413
▁converted	-11.9415
▁nowhere	-11.9415
▁uninstalled	-11.9416
▁nate	-11.9419
▁bother	-11.9427
▁recognized	-11.9435
▁pos	-11.9443
▁doc	-11.9454
▁lane	-11.9465
▁sp	-11.9473
▁bailey	-11.9481
▁boston	-11.9481
▁twilio	-11.9481
▁average	-11.9481
▁johnson	-11.9482
▁scan	-11.9482
▁checkout	-11.9484
▁income	-11.949
▁25	-11.9505
▁advocate	-11.9509
▁factor	-11.9525
▁master	-11.953
▁5	-11.9533
▁counter	-11.9537
▁enabling	-11.955
▁georgia	-11.955
▁joshua	-11.955
▁plenty	-11.955
▁properties	-11.955
▁intake	-11.955
▁providers	-11.9571
▁applications	-11.9578
▁assisting	-11.9586
▁age	-11.9606
▁coach	-11.9617
▁indication	-11.9619
▁sierra	-11.9619
▁specify	-11.9619
▁stupid	-11.9619
▁body	-11.9619
▁redirected	-11.962
▁detailed	-11.962
▁nina	-11.9621
▁tray	-11.9621
▁uploading	-11.9637
▁clarification	-11.9648
▁flag	-11.9649
5	-11.9675
▁andrea	-11.9675
▁spaces	-11.9677
▁kayla	-11.9688
▁fernanda	-11.9688
▁suddenly	-11.9689
▁delayed	-11.9693
▁pictures	-11.9712
▁expectation	-11.9725
▁subscribe	-11.9733
▁positive	-11.9758
▁lina	-11.9759
▁discussed	-11.976
▁difficulty	-11.9761
▁whereas	-11.9766
▁grow	-11.9779
▁williams	-11.9783
▁exchange	-11.9793
▁concept	-11.9795
▁signup	-11.9802
▁clinic	-11.9804
▁adonis	-11.9828
▁choppy	-11.9828
▁crystal	-11.9828
▁hannah	-11.9828
▁playback	-11.9829
▁shana	-11.9829
▁billable	-11.983
en	-11.9836
▁replaced	-11.986
▁procedure	-11.9863
▁large	-11.9896
▁shown	-11.9898
▁chromebook	-11.9899
▁coronavirus	-11.9899
▁heather	-11.9899
▁indeed	-11.9899
▁dyson	-11.9899
▁chicago	-11.9908
▁feeling	-11.9915
▁geo	-11.9919
▁frame	-11.9935
▁community	-11.9971
▁generic	-11.9971
▁considering	-11.9973
▁booting	-11.9973
▁refunded	-11.9979
▁becomes	-11.9992
▁luck	-12.0005
▁recipient	-12.0014
▁engineer	-12.0014
▁sheet	-12.0034
▁mother	-12.0043
▁taylor	-12.0043
▁terrible	-12.0043
▁prorated	-12.0043
▁solar	-12.0055
▁volunteer	-12.0087
▁bars	-12.0091
▁approve	-12.0109
▁plumbing	-12.0115
▁potentially	-12.0115
▁postal	-12.0115
▁$12	-12.0115
▁wi	-12.0122
▁videos	-12.013
▁fi	-12.0133
▁27	-12.0136
▁9	-12.016
▁suppose	-12.0181
▁capacity	-12.0188
▁jackie	-12.0188
▁www	-12.0188
▁stating	-12.0189
▁highlighted	-12.0189
▁corey	-12.019
▁pushing	-12.0196
fi	-12.0199
▁pa	-12.02
▁belongs	-12.0201
▁realty	-12.0209
1	-12.0234
▁statement	-12.0234
▁pp	-12.024
▁chain	-12.0262
▁orange	-12.0263
ce	-12.0316
▁analog	-12.0335
▁convenient	-12.0335
▁regional	-12.0336
▁amazon	-12.0336
▁nathan	-12.0336
▁baby	-12.0336
▁submitting	-12.0336
▁rerecord	-12.0337
▁died	-12.0348
▁vehicle	-12.0382
▁types	-12.0396
▁va	-12.04
▁describe	-12.0404
▁closer	-12.0408
▁inviting	-12.041
▁screenshare	-12.041
▁traffic	-12.041
▁renewal	-12.0411
▁associates	-12.0414
▁transcripts	-12.0428
▁ca	-12.0444
▁season	-12.0485
▁split	-12.0486
▁melby	-12.0486
▁spending	-12.0488
▁heck	-12.0489
▁risk	-12.0494
▁bound	-12.0502
▁comment	-12.0542
▁target	-12.0544
▁china	-12.0561
▁construction	-12.0561
▁darren	-12.0561
▁monica	-12.0562
▁sister	-12.0563
▁megan	-12.0574
▁holder	-12.0586
▁solid	-12.0589
▁philip	-12.0597
▁trip	-12.0614
▁region	-12.0616
▁hub	-12.0632
▁among	-12.0637
▁cursor	-12.0647
▁spelling	-12.0647
▁equal	-12.0661
▁louis	-12.0674
▁insight	-12.0695
▁mention	-12.0713
:30	-12.0714
▁debbie	-12.0715
▁checkmark	-12.0716
▁randomly	-12.0716
▁acting	-12.0716
▁mass	-12.0717
▁dig	-12.0728
▁invoices	-12.0751
▁benefit	-12.0776
▁yuba	-12.0792
▁reviewed	-12.0799
▁rated	-12.0829
▁claim	-12.0844
▁damn	-12.0846
▁peer	-12.0853
▁favorite	-12.0855
▁hop	-12.0863
▁foreign	-12.0869
▁drag	-12.087
▁muting	-12.087
▁removal	-12.087
▁vanity	-12.087
▁dear	-12.087
▁vx	-12.0874
▁sounded	-12.088
▁images	-12.0905
▁ads	-12.0931
▁rush	-12.0937
▁jane	-12.0937
▁belong	-12.0937
▁permanent	-12.0949
▁gateway	-12.0949
▁memory	-12.0949
▁ellen	-12.0949
▁disappeared	-12.095
▁generally	-12.0951
▁lives	-12.0951
▁accessible	-12.0954
▁kerr	-12.0997
▁authorize	-12.1022
▁independent	-12.1028
▁multi	-12.1028
▁annoying	-12.1028
▁copied	-12.1028
▁pandemic	-12.1028
▁savvy	-12.1028
▁tcp	-12.1029
▁watching	-12.1031
▁launched	-12.1034
▁uninstalling	-12.1035
▁former	-12.1045
▁item	-12.1079
▁ignore	-12.1101
▁transition	-12.1108
▁alyssa	-12.1108
▁oregon	-12.1108
▁recognizing	-12.1108
▁jasmine	-12.1108
▁plugging	-12.1108
▁cody	-12.1108
▁parties	-12.111
▁ideal	-12.1125
clock	-12.1167
▁strict	-12.1189
▁industry	-12.1189
▁inquiring	-12.1189
▁crap	-12.1189
▁edition	-12.119
▁brain	-12.1218
▁prices	-12.1226
▁greetings	-12.1261
▁expert	-12.1261
▁expedite	-12.1263
ry	-12.1266
▁highest	-12.1271
▁recovery	-12.1271
▁fuck	-12.1278
▁women	-12.128
▁anderson	-12.1284
▁viewing	-12.129
▁listing	-12.13
ion	-12.1314
▁jade	-12.1328
▁opt	-12.1334
▁mortgage	-12.134
▁po	-12.1343
▁cetera	-12.1352
▁various	-12.1352
▁sharon	-12.1352
▁henry	-12.1352
▁highly	-12.1354
▁admit	-12.1354
▁seemed	-12.1362
▁ops	-12.1372
▁22	-12.1383
▁rich	-12.1385
▁nature	-12.1435
▁signature	-12.1435
▁mom	-12.1435
▁social	-12.1437
▁sherry	-12.1437
▁harris	-12.1438
▁express	-12.1439
▁flat	-12.1439
▁lucky	-12.1466
▁connects	-12.148
▁coworkers	-12.1493
▁restriction	-12.1514
▁teacher	-12.1514
▁convenience	-12.1518
▁hyperlink	-12.1518
▁nicholas	-12.1518
▁screwed	-12.1519
▁surprised	-12.152
▁chosen	-12.1563
▁feed	-12.1566
▁president	-12.1572
▁disposition	-12.1593
▁repair	-12.1594
▁erase	-12.1595
▁food	-12.1598
▁incur	-12.1602
▁beautiful	-12.1602
▁morgan	-12.1602
▁felt	-12.1602
▁kimberly	-12.1602
▁randy	-12.1602
▁pam	-12.1603
▁heating	-12.1604
▁useful	-12.1606
▁cro	-12.1612
▁offered	-12.1612
▁icons	-12.1613
▁recurring	-12.1624
▁lake	-12.1628
▁techs	-12.1666
▁adrian	-12.1682
▁student	-12.1686
▁modify	-12.1687
▁jessie	-12.1687
▁jared	-12.1687
▁ideally	-12.1687
▁dispute	-12.1689
▁affecting	-12.1692
▁collect	-12.1712
▁conversations	-12.1726
▁cars	-12.175
▁pastor	-12.1769
▁colorado	-12.1772
▁commercial	-12.1772
▁yellow	-12.1772
▁courtney	-12.1773
▁omar	-12.1773
▁upset	-12.1778
▁pushed	-12.1778
▁passed	-12.1778
▁understandable	-12.1779
▁youtube	-12.1784
▁browsers	-12.1828
▁rename	-12.1852
▁pray	-12.1857
▁hospital	-12.1858
▁rule	-12.1858
▁atlanta	-12.1859
▁spreadsheet	-12.1859
▁hoover	-12.1859
▁tyler	-12.1859
▁fiber	-12.1859
▁wendy	-12.1859
▁claire	-12.1859
▁heavy	-12.1859
▁installation	-12.1859
▁exceeded	-12.1859
▁prove	-12.1867
▁roger	-12.1891
▁coast	-12.1946
▁singapore	-12.1946
▁evelyn	-12.1946
▁investigating	-12.1946
▁storage	-12.1946
▁woman	-12.1946
▁magically	-12.1946
▁mitch	-12.1946
▁reinstalled	-12.195
▁items	-12.196
▁ties	-12.1995
▁fields	-12.2011
▁confuse	-12.2026
▁reduce	-12.2027
▁jesus	-12.2033
▁mountain	-12.2033
▁tanya	-12.2033
▁dream	-12.2033
▁truly	-12.2033
▁unchecked	-12.2035
▁carlos	-12.2045
▁delays	-12.2057
▁mb	-12.2077
▁https	-12.2096
▁throw	-12.2097
son	-12.2118
▁river	-12.2119
▁tension	-12.212
▁demand	-12.2121
▁unlike	-12.2122
▁carolyn	-12.2122
▁tammy	-12.2122
▁secretary	-12.2122
▁kathy	-12.2122
▁roughly	-12.2122
▁tenant	-12.2128
▁reinstalling	-12.2129
▁persist	-12.2138
▁12	-12.2141
▁tough	-12.2155
▁broken	-12.2159
▁nan	-12.2196
▁highlight	-12.221
▁dray	-12.2212
▁boat	-12.2213
▁ww	-12.2214
▁disappear	-12.2216
▁smell	-12.2216
▁returning	-12.2217
▁lesson	-12.2219
▁supply	-12.2237
▁differences	-12.2241
▁functions	-12.2253
▁lab	-12.2279
▁retain	-12.2299
▁frequent	-12.2301
▁europe	-12.2301
▁yelling	-12.2302
▁extended	-12.2303
▁revert	-12.2304
▁walker	-12.2307
▁individuals	-12.2307
▁script	-12.2307
▁brother	-12.2308
▁sooner	-12.2311
▁raised	-12.2313
▁13	-12.2321
▁ober	-12.2349
▁mo	-12.236
▁recorder	-12.2366
▁nikki	-12.2392
▁timing	-12.2396
▁accepting	-12.2401
▁michigan	-12.2418
▁forced	-12.2424
▁presses	-12.2425
9	-12.2454
ie	-12.2461
▁lash	-12.2473
▁clue	-12.2477
▁decline	-12.2477
▁christopher	-12.2484
▁exclamation	-12.2484
▁hyphen	-12.2484
▁kidding	-12.2484
▁sequence	-12.2484
▁diane	-12.2484
▁matches	-12.2484
▁23	-12.2485
▁consulting	-12.2489
▁transcribed	-12.2491
▁experiment	-12.2491
▁portable	-12.2492
▁estimated	-12.2493
▁campaign	-12.2495
▁restaurant	-12.2495
▁table	-12.25
▁band	-12.2501
▁ross	-12.2504
▁comfort	-12.251
▁dad	-12.2512
▁bay	-12.2525
▁ha	-12.2531
▁ear	-12.256
▁eliminate	-12.257
▁knock	-12.2575
▁afford	-12.2576
▁audit	-12.258
▁reflecting	-12.2581
▁internationally	-12.2582
▁noon	-12.2583
▁wayne	-12.2585
▁quicker	-12.2587
▁ui	-12.2589
▁clearing	-12.2601
▁rose	-12.2653
▁simon	-12.2668
▁capabilities	-12.267
▁authentication	-12.267
▁carolina	-12.267
▁chicken	-12.267
▁angeles	-12.267
▁21	-12.267
▁expired	-12.2678
▁10	-12.2678
▁trick	-12.268
▁timestamp	-12.2681
▁club	-12.2682
▁macy	-12.2694
ted	-12.2704
▁bc	-12.2705
▁pet	-12.271
▁holidays	-12.2721
▁leo	-12.274
▁todd	-12.2746
▁race	-12.2756
▁pause	-12.2757
▁improve	-12.2757
▁stab	-12.2761
▁german	-12.2763
▁instant	-12.2764
▁replacing	-12.2764
▁31	-12.2764
▁excited	-12.2765
▁advisors	-12.2765
▁printed	-12.2767
▁warning	-12.2769
▁transcribe	-12.277
▁surface	-12.2775
▁ride	-12.279
est	-12.2807
▁grand	-12.2849
▁pack	-12.2858
▁serious	-12.2859
▁impression	-12.286
▁sydney	-12.286
▁keypad	-12.286
▁rejection	-12.286
▁ninth	-12.286
▁semi	-12.286
▁flip	-12.2861
▁hiring	-12.2862
▁attempts	-12.2867
▁carrie	-12.2875
▁$2,	-12.2888
▁mid	-12.2892
▁savings	-12.2897
▁representatives	-12.2937
▁void	-12.2955
▁brett	-12.2956
▁disregard	-12.2956
▁jerry	-12.2956
▁spinning	-12.2956
▁linkedin	-12.2956
▁shaded	-12.2957
▁alias	-12.2958
▁rolling	-12.2959
▁culture	-12.2968
▁pair	-12.2969
▁incident	-12.2974
▁suggesting	-12.2978
▁adjustment	-12.2978
▁lag	-12.2984
q	-12.3012
▁constant	-12.3052
▁umbrella	-12.3053
▁valerie	-12.3053
▁completion	-12.3053
▁prerecorded	-12.3053
▁davis	-12.3053
▁lew	-12.3053
▁detecting	-12.3056
▁informing	-12.306
▁assisted	-12.3083
▁fixing	-12.3083
▁dates	-12.3125
▁lynn	-12.3149
▁houston	-12.3151
▁legacy	-12.3151
▁winning	-12.3151
▁permanently	-12.3151
▁phil	-12.3151
▁conduct	-12.3161
▁floor	-12.3168
▁jackson	-12.3171
▁attorney	-12.3174
▁comments	-12.3177
▁theresa	-12.3195
▁noted	-12.3195
▁assure	-12.3243
▁punch	-12.3248
▁administration	-12.325
▁cleaning	-12.3254
▁hosted	-12.3255
▁julian	-12.3261
▁attachment	-12.3273
el	-12.3312
▁casey	-12.3323
▁recreate	-12.3343
▁immediate	-12.335
▁potential	-12.335
▁avail	-12.335
▁irvine	-12.335
▁$40	-12.335
▁coverage	-12.335
at	-12.3359
▁filling	-12.3363
▁corrected	-12.3364
▁fund	-12.3371
▁sticker	-12.3375
▁servers	-12.3412
▁separated	-12.342
co	-12.3425
▁observe	-12.3444
▁poor	-12.3451
▁impossible	-12.3451
▁indicator	-12.3451
▁kara	-12.3451
▁incorrectly	-12.3452
▁labeled	-12.3453
▁monitoring	-12.3458
▁downtime	-12.346
▁dated	-12.3471
▁interview	-12.3479
▁beep	-12.3485
▁parts	-12.3489
▁island	-12.3518
7	-12.3534
▁participate	-12.3546
▁typical	-12.3553
▁elephant	-12.3553
▁energy	-12.3553
▁chase	-12.3553
▁shelly	-12.3554
▁santi	-12.3557
▁restrictions	-12.3558
▁hosting	-12.3562
▁stan	-12.3565
▁blog	-12.3576
▁agreement	-12.3577
▁environment	-12.3599
▁held	-12.3619
▁toward	-12.3625
▁startup	-12.3633
▁explore	-12.3647
▁proof	-12.3655
▁alicia	-12.3656
▁backslash	-12.3656
▁kansas	-12.3656
▁timothy	-12.3656
▁democratic	-12.3656
▁layout	-12.3656
▁sensitive	-12.3656
▁carmen	-12.3656
▁pbx	-12.3656
▁crew	-12.3656
▁silly	-12.3657
▁accordingly	-12.3657
▁traditional	-12.3661
▁meal	-12.3663
▁overall	-12.3663
▁parents	-12.3671
▁hangs	-12.3682
▁cooling	-12.3704
▁nor	-12.3712
▁mask	-12.3759
▁earliest	-12.376
▁opposite	-12.376
▁centrally	-12.3762
▁defaulted	-12.379
▁ac	-12.3791
▁29	-12.3808
▁19	-12.3814
▁stops	-12.3821
▁hall	-12.3826
▁investigated	-12.3831
▁handles	-12.3841
▁$3	-12.3849
▁sim	-12.3858
▁exceed	-12.3863
▁category	-12.3865
▁jersey	-12.3865
▁zebra	-12.3865
▁civic	-12.3865
▁victoria	-12.3866
▁germany	-12.3867
▁fly	-12.3867
▁likewise	-12.3868
▁15	-12.3888
▁replying	-12.3895
▁alternative	-12.3901
▁volunteers	-12.3905
▁barge	-12.3908
▁settle	-12.3967
▁maintain	-12.397
▁vote	-12.3971
▁child	-12.3972
▁gimme	-12.3972
▁marisa	-12.3972
▁miami	-12.3972
▁vicky	-12.3972
▁salesperson	-12.3972
▁telecom	-12.3972
▁brianna	-12.3972
▁radio	-12.3972
▁denied	-12.3972
▁critical	-12.3974
▁weekly	-12.3979
▁organized	-12.3983
▁doug	-12.3986
▁indicated	-12.3987
▁solved	-12.4004
▁tire	-12.4017
▁structure	-12.4032
▁straightforward	-12.4079
▁jones	-12.4079
▁rare	-12.4102
▁sap	-12.4103
▁supporting	-12.411
▁stone	-12.4114
▁indian	-12.4118
▁trend	-12.4126
▁counts	-12.4141
▁plane	-12.4146
▁waited	-12.416
▁angel	-12.4166
▁ta	-12.4167
▁scratch	-12.4186
▁sleep	-12.4187
▁intermittent	-12.4188
▁consistent	-12.4188
▁hipaa	-12.4188
▁override	-12.4188
▁yankee	-12.4188
▁carol	-12.4188
▁exemption	-12.4188
▁patch	-12.4194
▁reaches	-12.4199
▁di	-12.4219
▁miller	-12.423
▁developer	-12.4235
▁logic	-12.4245
▁feet	-12.4247
▁loss	-12.4261
cause	-12.427
▁trade	-12.4289
▁rectified	-12.4298
▁triangle	-12.4298
▁father	-12.4298
▁maximize	-12.4298
▁federal	-12.4298
▁shape	-12.4298
▁implemented	-12.4299
▁fred	-12.4299
▁benefits	-12.4321
▁challenge	-12.4338
▁sake	-12.4345
▁spring	-12.4346
▁trends	-12.4363
▁cameras	-12.4379
▁dress	-12.4407
▁weight	-12.4408
▁accident	-12.4409
▁benjamin	-12.4409
▁frustration	-12.4409
▁trump	-12.4409
▁utah	-12.4409
▁failure	-12.4409
▁kenny	-12.4409
▁correspond	-12.4409
▁intro	-12.4409
▁flashing	-12.4412
▁kill	-12.4413
▁dean	-12.4413
▁booked	-12.4414
▁ram	-12.4427
▁owned	-12.4461
▁branch	-12.452
▁webinar	-12.4521
▁depot	-12.4521
▁kurt	-12.4521
▁output	-12.4521
▁thompson	-12.4521
▁warehouse	-12.4521
▁lowercase	-12.4521
▁drew	-12.4521
▁magnifying	-12.4521
▁judy	-12.4521
▁sheila	-12.4523
▁mentioning	-12.4523
▁cpa	-12.4523
▁amber	-12.4524
▁nin	-12.4526
▁privilege	-12.4529
▁plugin	-12.4529
▁counted	-12.4531
▁visible	-12.4545
▁fans	-12.4555
▁handy	-12.4578
▁whom	-12.4627
▁dance	-12.4634
▁vertical	-12.4635
▁angie	-12.4635
▁council	-12.4635
▁definition	-12.4635
▁samsung	-12.4635
▁toronto	-12.4635
▁outdated	-12.4635
▁array	-12.4635
▁vincent	-12.4635
▁intercom	-12.4635
▁unlocked	-12.4636
▁mixed	-12.4637
▁phase	-12.4637
▁rough	-12.4638
▁government	-12.464
▁teachers	-12.4641
▁validate	-12.4642
▁displaying	-12.4651
▁locally	-12.4651
▁purged	-12.4662
▁bird	-12.4684
▁sky	-12.4689
▁resource	-12.4694
▁farm	-12.4718
▁reverse	-12.4743
▁corporation	-12.475
▁opinion	-12.475
▁travis	-12.475
▁consultation	-12.475
▁9:30	-12.475
agged	-12.4751
▁stays	-12.4751
▁weiss	-12.4752
▁lovely	-12.4753
▁jumped	-12.4753
▁silent	-12.4761
ies	-12.4777
▁silver	-12.4805
▁effort	-12.4808
▁wine	-12.4808
▁dane	-12.4812
▁seller	-12.4813
▁gas	-12.4858
▁orders	-12.4864
▁lack	-12.4865
▁fight	-12.4865
▁deep	-12.4866
▁clarity	-12.4866
▁gatien	-12.4866
▁keith	-12.4866
▁valley	-12.4866
▁holly	-12.4866
▁pharmacy	-12.4866
▁mattek	-12.4866
▁recruiting	-12.4867
▁intended	-12.4867
ton	-12.4874
▁experts	-12.4879
▁guard	-12.4879
▁foot	-12.4882
age	-12.4889
▁paula	-12.4891
▁buyer	-12.4932
▁align	-12.4946
is	-12.4971
▁attend	-12.4982
▁katrina	-12.4984
▁kaylee	-12.4984
▁struggling	-12.4984
▁harrison	-12.4984
▁lately	-12.4986
▁king	-12.4986
▁howard	-12.4994
▁standing	-12.5033
▁contain	-12.5046
▁occur	-12.5047
▁stored	-12.5058
▁addressed	-12.5059
▁17	-12.5077
▁prepare	-12.5096
▁coordinating	-12.5103
▁mismatch	-12.5103
▁weather	-12.5103
▁blind	-12.5103
▁death	-12.5103
▁ronnie	-12.5103
▁fox	-12.5103
▁30	-12.5103
▁granted	-12.5106
▁regularly	-12.5109
▁printing	-12.5109
▁capable	-12.5118
▁populated	-12.512
▁rooms	-12.5126
▁scale	-12.5137
▁owners	-12.5145
▁joy	-12.5148
▁theory	-12.5164
▁commission	-12.5223
▁effective	-12.5223
▁advertising	-12.5223
▁became	-12.5223
▁chuck	-12.5223
▁crisis	-12.5223
▁dental	-12.5223
▁retry	-12.5224
▁cameron	-12.5224
▁tight	-12.5224
▁finishes	-12.5224
▁frankly	-12.5226
▁employer	-12.5229
▁messing	-12.523
▁slide	-12.5234
▁divide	-12.5252
▁timeline	-12.5264
▁ch	-12.5276
▁occasion	-12.5292
ian	-12.5293
▁carter	-12.5295
▁directions	-12.5303
▁lean	-12.5315
▁acts	-12.5341
▁develop	-12.5344
▁resume	-12.5345
▁serial	-12.5345
▁marcus	-12.5346
▁differentiate	-12.5346
▁traveling	-12.5349
▁shooting	-12.5354
ic	-12.5359
▁counting	-12.5362
▁pink	-12.5377
▁lp	-12.5383
▁nation	-12.5411
▁character	-12.5421
▁hotmail	-12.543
le	-12.5435
▁camp	-12.5454
▁gene	-12.5464
down	-12.5465
▁pitch	-12.5466
▁broadcast	-12.5467
▁cynthia	-12.5469
▁distinguish	-12.5469
▁foxtrot	-12.5469
▁leslie	-12.5469
▁molly	-12.5469
▁premier	-12.5469
▁mojo	-12.5469
▁battery	-12.5469
▁guarding	-12.547
▁topic	-12.5471
▁tired	-12.5477
▁engage	-12.5488
▁drops	-12.549
▁jobs	-12.5491
▁eli	-12.5492
▁boys	-12.5494
▁faxing	-12.5515
▁stayed	-12.5516
▁zealand	-12.5535
▁loved	-12.5537
▁screw	-12.5538
▁bond	-12.5542
ee	-12.5546
▁funds	-12.5558
▁photos	-12.5567
do	-12.557
▁shoes	-12.5581
▁retail	-12.5593
▁abbreviation	-12.5594
▁chloe	-12.5594
▁krista	-12.5594
▁ourselves	-12.5594
▁rectify	-12.5594
▁technologies	-12.5594
▁donald	-12.5594
▁occurred	-12.5594
▁junk	-12.5594
▁holy	-12.5594
▁overflow	-12.5595
▁medically	-12.5595
▁blessed	-12.5596
▁frozen	-12.5608
▁weekends	-12.5625
call	-12.5632
▁books	-12.5648
ner	-12.5662
▁interruption	-12.5668
▁bills	-12.5691
▁mirror	-12.5719
▁budget	-12.572
▁uniform	-12.572
▁wtmc	-12.572
▁creation	-12.572
▁$95	-12.572
▁rtc	-12.572
▁luke	-12.5721
▁$75	-12.5721
▁ef	-12.5722
▁designated	-12.5722
▁smaller	-12.5723
▁discussing	-12.5726
▁marked	-12.5738
▁lights	-12.5743
▁vision	-12.5758
▁roman	-12.5767
▁emma	-12.5774
▁flight	-12.5799
▁sun	-12.5803
▁lawyer	-12.5804
▁queues	-12.5824
▁models	-12.5833
▁cook	-12.5846
▁gain	-12.5847
▁approach	-12.5847
▁fence	-12.5849
▁perspective	-12.5849
▁indigo	-12.5849
▁softphone	-12.5849
▁therefore	-12.5849
▁dependent	-12.5849
▁alongside	-12.5849
▁pete	-12.5849
▁tasha	-12.5849
▁chart	-12.585
▁upfront	-12.585
▁ash	-12.5851
▁bid	-12.5854
▁dealer	-12.5855
▁janelle	-12.5857
▁doable	-12.586
▁mouth	-12.5864
▁megabytes	-12.587
▁favorites	-12.5874
▁hp	-12.5874
▁turns	-12.5896
▁routes	-12.5905
▁jill	-12.5912
▁disciplines	-12.5934
▁korea	-12.5955
▁ground	-12.5958
▁define	-12.5972
ity	-12.5972
▁compose	-12.5972
▁bathroom	-12.5978
▁configuring	-12.5978
▁cruise	-12.5978
▁himself	-12.5978
▁negative	-12.5978
▁requiring	-12.5978
▁zapier	-12.5978
▁hurry	-12.5978
▁performance	-12.5978
▁salon	-12.5979
▁nuber	-12.5979
▁slowly	-12.598
▁defense	-12.5984
▁recruitment	-12.5984
▁asap	-12.5987
▁cater	-12.5988
▁heading	-12.599
▁token	-12.601
▁eyes	-12.6022
ne	-12.6066
▁leg	-12.6073
ley	-12.608
▁comp	-12.6094
▁mini	-12.6102
▁prioritize	-12.6103
▁liza	-12.6106
▁permit	-12.611
▁kilo	-12.611
▁figuring	-12.611
▁summaries	-12.611
▁extremely	-12.611
▁bible	-12.611
▁membership	-12.611
▁growing	-12.6112
▁electric	-12.6117
▁hired	-12.612
▁gold	-12.6124
▁nother	-12.6125
▁hong	-12.6126
▁coding	-12.6127
▁schools	-12.6128
▁healthcare	-12.6137
▁clickable	-12.6142
▁matters	-12.6166
▁surely	-12.6168
ers	-12.6188
▁hurt	-12.62
▁tour	-12.6208
▁loads	-12.6217
▁actions	-12.6221
▁implement	-12.6243
▁confident	-12.6243
▁clothes	-12.6243
▁advising	-12.6243
▁dylan	-12.6243
▁integrating	-12.6243
▁twentieth	-12.6243
▁powerpoint	-12.6243
▁manila	-12.6244
▁frequently	-12.6244
▁string	-12.6244
▁calvin	-12.6245
▁friendly	-12.6245
▁reassigned	-12.6246
▁chile	-12.6248
▁anti	-12.6274
▁interact	-12.6286
▁wind	-12.6299
▁candy	-12.6301
▁greatly	-12.6305
▁receiver	-12.6314
▁layer	-12.6335
▁mation	-12.6337
▁reseller	-12.6341
▁keyword	-12.6341
▁apartments	-12.6371
▁advertise	-12.6371
▁rogers	-12.6377
▁appropriate	-12.6378
▁dark	-12.6378
▁dhcp	-12.6379
▁mysql	-12.6379
▁shipped	-12.6379
▁overseas	-12.6379
▁tronic	-12.6379
▁derick	-12.6379
▁mama	-12.6379
▁kathleen	-12.6379
▁sylvia	-12.6379
▁decent	-12.6379
▁rice	-12.6379
▁johnny	-12.6379
▁painting	-12.6379
▁asia	-12.638
▁incorporated	-12.6381
▁official	-12.6381
▁tj	-12.6394
▁prompting	-12.6396
▁spare	-12.6406
▁draft	-12.6406
▁sw	-12.6436
▁complain	-12.6453
▁candidate	-12.6479
▁profit	-12.6514
▁licensing	-12.6516
▁lytx	-12.6516
▁summit	-12.6516
▁creek	-12.6516
▁primarily	-12.6516
▁garrett	-12.6516
▁cordless	-12.6516
▁majority	-12.6516
▁pauline	-12.6516
▁instantly	-12.6516
▁whatsoever	-12.6517
▁particularly	-12.652
▁academy	-12.6522
▁miles	-12.6527
▁dive	-12.653
▁complaint	-12.6541
▁scope	-12.6544
▁14	-12.6546
▁blow	-12.6593
▁production	-12.6616
▁bugs	-12.6633
▁cd	-12.6635
by	-12.6641
▁mic	-12.6647
▁bruce	-12.6654
▁swipe	-12.6654
▁unread	-12.6654
▁preset	-12.6654
▁referred	-12.6655
▁prevention	-12.6655
▁leasing	-12.6655
▁deeper	-12.6655
▁glen	-12.6655
▁slightly	-12.6655
▁complaining	-12.6656
▁dropdown	-12.6656
▁rolled	-12.6657
▁preventing	-12.6659
▁homes	-12.6659
▁generating	-12.6661
▁recommendations	-12.6667
▁appearing	-12.6669
▁art	-12.6675
▁forms	-12.6685
▁appointments	-12.6689
▁scrolling	-12.6706
▁newer	-12.6715
▁debt	-12.6724
▁comma	-12.6761
▁division	-12.6762
▁carla	-12.6779
▁terminate	-12.6789
▁nelson	-12.6795
▁policies	-12.6795
▁thirtieth	-12.6795
▁overnight	-12.6795
▁becoming	-12.6795
▁diana	-12.6795
▁established	-12.6796
▁broad	-12.6796
▁tricky	-12.6797
ling	-12.6797
▁op	-12.6799
▁pocket	-12.6802
▁initialize	-12.6804
▁skin	-12.681
▁goals	-12.6813
▁alerts	-12.6828
▁classic	-12.6856
▁nc	-12.6867
▁pods	-12.689
▁natural	-12.6938
▁bizarre	-12.6938
▁bonnie	-12.6938
▁tiffany	-12.6938
▁kong	-12.6938
▁versa	-12.6938
▁ricardo	-12.6938
▁ultimately	-12.6938
▁warren	-12.6938
▁bobby	-12.6938
▁tarah	-12.6938
▁discussion	-12.6938
▁careful	-12.6939
▁mason	-12.6939
▁exception	-12.694
▁imported	-12.6942
▁math	-12.6947
▁discounts	-12.6955
▁grid	-12.6956
▁repeating	-12.6962
go	-12.6978
ka	-12.6987
▁rejoin	-12.6991
▁sucks	-12.6998
▁mover	-12.7017
▁ordering	-12.7021
▁doctors	-12.7022
▁packet	-12.7055
▁cheap	-12.7083
▁combination	-12.7083
▁graham	-12.7083
▁heidi	-12.7083
▁minus	-12.7083
▁horrible	-12.7083
▁initiating	-12.7083
▁hardwired	-12.7083
▁snow	-12.7085
▁noticing	-12.7086
▁tile	-12.7087
▁sticking	-12.7087
▁streaming	-12.7087
▁touched	-12.7096
▁jp	-12.7111
▁sable	-12.712
▁tobar	-12.7133
ation	-12.7134
▁meter	-12.7145
▁sat	-12.7169
▁war	-12.7189
▁girls	-12.7197
▁reservation	-12.7203
▁sentence	-12.7207
▁career	-12.7224
▁habit	-12.7228
▁cassandra	-12.723
▁chinese	-12.723
▁concrete	-12.723
▁morrow	-12.723
▁pronounce	-12.723
▁transcribing	-12.723
▁freedom	-12.723
▁stray	-12.723
▁leah	-12.723
▁difficulties	-12.723
▁stopping	-12.723
▁strongly	-12.7231
▁brent	-12.7233
▁ricky	-12.7234
▁landing	-12.7237
▁actively	-12.7245
▁clarifying	-12.7247
▁van	-12.7268
▁dumb	-12.7274
▁$5,	-12.7277
▁bucks	-12.7298
▁stevens	-12.7298
▁newly	-12.7301
▁guards	-12.7302
ice	-12.7314
▁covers	-12.7322
▁bowl	-12.7324
▁runs	-12.7336
▁drink	-12.7347
▁parent	-12.7356
▁bounce	-12.7363
▁strength	-12.7366
▁wipe	-12.7378
▁barbara	-12.7379
▁darryl	-12.7379
▁foremost	-12.7379
▁inactive	-12.7379
▁martinez	-12.7379
▁pakistan	-12.7379
▁turnaround	-12.7379
▁grandstream	-12.7379
▁wilson	-12.7379
▁blake	-12.738
▁gloria	-12.738
▁trained	-12.7381
▁failing	-12.7383
▁eating	-12.7384
▁matching	-12.7389
▁lefthand	-12.7392
▁da	-12.7394
it	-12.7394
▁mar	-12.7491
▁expense	-12.7508
▁earphone	-12.751
▁rental	-12.751
▁fits	-12.7525
la	-12.753
▁exempt	-12.7531
▁activities	-12.7531
▁certificate	-12.7531
▁equipment	-12.7531
▁harvey	-12.7531
▁logitech	-12.7531
▁template	-12.7531
▁utility	-12.7531
▁antonio	-12.7531
▁hotspot	-12.7531
▁warranty	-12.7531
▁rarely	-12.7531
▁christy	-12.7532
▁renee	-12.7532
▁outreach	-12.7533
▁shorter	-12.7533
▁learned	-12.7535
▁discounted	-12.7536
all	-12.7538
▁spin	-12.7541
▁micro	-12.7542
▁kitchen	-12.755
▁logistics	-12.7565
▁contracts	-12.7577
▁em	-12.7591
▁ease	-12.7594
▁uptime	-12.7639
▁shi	-12.7642
▁pan	-12.7646
▁tower	-12.7662
ger	-12.7677
▁sa	-12.7679
▁cole	-12.7684
▁avenue	-12.7685
▁cheryl	-12.7685
▁fedex	-12.7685
▁reliable	-12.7685
▁utilizing	-12.7685
▁latency	-12.7685
▁jimmy	-12.7685
▁papa	-12.7686
▁checkbox	-12.7687
▁efficient	-12.7691
▁exclusive	-12.7692
▁jive	-12.7693
▁powered	-12.7695
▁dns	-12.7698
▁agreed	-12.7724
ra	-12.773
▁houses	-12.7731
ray	-12.7744
▁towing	-12.7768
▁jc	-12.7791
▁protect	-12.7807
ia	-12.7813
▁preview	-12.7822
▁disappears	-12.7828
▁tenants	-12.7831
▁reroute	-12.7834
▁obvious	-12.7841
▁unfortunate	-12.7841
▁carefree	-12.7841
▁madison	-12.7841
▁premium	-12.7841
▁relevant	-12.7841
▁samantha	-12.7841
▁stewart	-12.7841
▁unusual	-12.7841
▁vancouver	-12.7841
▁referral	-12.7841
▁initializing	-12.7841
▁diego	-12.7841
▁brick	-12.7841
▁gail	-12.7841
▁ruby	-12.7841
▁truth	-12.7841
▁pace	-12.7843
▁boom	-12.7844
▁chair	-12.7852
▁joey	-12.7857
▁peers	-12.7873
▁graph	-12.7873
▁settled	-12.7883
▁era	-12.7905
▁hangouts	-12.7917
ey	-12.7932
▁condition	-12.7959
▁robo	-12.7972
▁linking	-12.7973
▁gap	-12.7986
▁diagnostic	-12.7987
▁mile	-12.7988
▁commit	-12.8
▁denver	-12.8
▁dialogue	-12.8
▁hawaii	-12.8
▁patricia	-12.8
▁bucket	-12.8
▁5:30	-12.8
▁resubmitted	-12.8
▁abc	-12.8001
▁edu	-12.8001
▁sasha	-12.8002
▁uptop	-12.8003
▁lifestyle	-12.8006
▁boarding	-12.8008
▁lowest	-12.8022
▁liz	-12.8024
▁restored	-12.8026
▁finder	-12.8039
▁kicks	-12.8045
▁lit	-12.8083
▁ali	-12.8085
▁brie	-12.8086
▁platforms	-12.8093
▁supervisors	-12.8102
▁bo	-12.8105
▁sta	-12.8116
▁julia	-12.8138
▁dale	-12.8139
▁bubble	-12.8148
▁archive	-12.8153
▁mad	-12.8161
▁dawn	-12.8161
▁montreal	-12.8161
▁navigating	-12.8161
▁tweak	-12.8161
▁basing	-12.8161
▁elisa	-12.8161
▁alice	-12.8161
▁sammy	-12.8161
▁solely	-12.8161
▁grey	-12.8161
▁delivered	-12.8162
▁chatted	-12.8163
▁interrupted	-12.8165
▁yo	-12.8169
▁lay	-12.817
▁plate	-12.8171
▁diagnostics	-12.8174
▁applying	-12.8174
▁conditions	-12.8175
▁dalen	-12.8184
▁secret	-12.8186
▁wording	-12.8192
▁cooper	-12.8203
▁bi	-12.8205
▁mall	-12.8235
▁forest	-12.828
▁fat	-12.8292
▁metrics	-12.8295
▁queen	-12.8309
▁assignment	-12.8317
▁sas	-12.8324
▁joan	-12.8325
▁assumption	-12.8325
▁douglas	-12.8325
▁elliot	-12.8325
▁fraud	-12.8325
▁releasing	-12.8325
▁cambridge	-12.8325
▁clark	-12.8325
▁virginia	-12.8325
▁argentina	-12.8325
▁narrow	-12.8325
▁drain	-12.8325
▁rating	-12.8325
▁alana	-12.8325
▁carefully	-12.8325
▁instructed	-12.8326
▁anyhow	-12.8326
▁pressure	-12.8327
▁presented	-12.833
▁kicking	-12.833
▁switches	-12.8331
▁jumping	-12.8331
▁disclose	-12.8332
▁terminated	-12.8333
▁sally	-12.8336
▁obtain	-12.8337
▁launching	-12.834
▁prepared	-12.8342
▁marshall	-12.8344
▁inter	-12.8345
▁broker	-12.8374
▁victory	-12.8403
▁buyers	-12.8403
▁shall	-12.841
based	-12.8412
et	-12.8435
ny	-12.8437
▁jess	-12.845
▁rod	-12.8464
▁peak	-12.8469
▁sport	-12.8484
▁arrange	-12.8484
▁gift	-12.8488
▁recover	-12.8488
▁birth	-12.8492
▁campbell	-12.8492
▁compliant	-12.8492
▁freight	-12.8492
▁insane	-12.8492
▁kingdom	-12.8492
▁parentheses	-12.8492
▁studio	-12.8492
▁elite	-12.8492
▁luber	-12.8492
▁7:30	-12.8492
▁seriously	-12.8492
▁nearly	-12.8494
▁reality	-12.8494
▁asset	-12.8496
▁attempted	-12.8502
▁expedited	-12.8506
▁falls	-12.8515
▁replicated	-12.8531
▁recipients	-12.8558
ca	-12.8559
▁chances	-12.856
▁sad	-12.8564
▁loans	-12.8567
▁troubles	-12.8597
▁costa	-12.8602
▁suit	-12.8654
▁spec	-12.8657
▁advisor	-12.8659
▁compensation	-12.8661
▁downgrading	-12.8661
▁melanie	-12.8661
▁moderator	-12.8661
▁vanessa	-12.8661
▁loving	-12.8661
▁relationship	-12.8661
▁caroline	-12.8661
▁prepaid	-12.8661
▁varies	-12.8661
▁redial	-12.8661
▁lily	-12.8661
▁replacement	-12.8661
▁officially	-12.8661
▁recharge	-12.8661
▁workflow	-12.8662
▁slight	-12.8664
▁baker	-12.8665
▁player	-12.8665
▁sc	-12.8666
▁index	-12.8669
▁upside	-12.8685
▁el	-12.8688
▁walked	-12.8689
▁seventh	-12.8707
▁ga	-12.8732
▁plays	-12.8756
▁hide	-12.8765
▁burn	-12.8787
▁accessed	-12.8795
▁movie	-12.8828
▁automate	-12.8828
▁tip	-12.8831
▁laugh	-12.8832
▁abigail	-12.8833
▁brittany	-12.8833
▁facility	-12.8833
▁onboarding	-12.8834
▁hair	-12.8834
▁replay	-12.8834
▁investment	-12.8834
▁soonest	-12.8837
▁length	-12.884
▁fake	-12.8841
▁defined	-12.8843
▁enjoying	-12.8846
▁ipv	-12.8852
▁channels	-12.8853
▁suggestions	-12.8862
▁workers	-12.8882
▁soul	-12.8892
date	-12.8898
▁networking	-12.8912
nd	-12.8923
▁union	-12.8941
▁cal	-12.8945
▁vendors	-12.8945
▁respect	-12.8976
▁restrict	-12.8981
▁debug	-12.8983
▁officer	-12.9001
▁segment	-12.9005
▁resign	-12.9008
▁bulk	-12.9009
▁election	-12.9009
▁entity	-12.9009
▁employment	-12.9009
▁ocean	-12.9009
▁corona	-12.9009
▁mbps	-12.9009
▁standpoint	-12.9009
▁commitment	-12.9009
▁danielle	-12.9009
▁committed	-12.9011
▁adjusted	-12.9013
▁abled	-12.9015
▁returned	-12.9016
▁turner	-12.9021
▁isolated	-12.903
▁bra	-12.9048
way	-12.9061
ber	-12.9126
▁ventures	-12.9132
▁mario	-12.9165
▁sante	-12.9165
▁produce	-12.9178
▁introduce	-12.9181
▁roof	-12.9186
▁expire	-12.9187
▁minor	-12.9187
▁messenger	-12.9187
▁praline	-12.9187
▁reschedule	-12.9187
▁rhonda	-12.9187
▁webex	-12.9187
▁laughter	-12.9188
▁connie	-12.9188
▁undo	-12.9188
▁labor	-12.9188
▁blacklisted	-12.9188
▁easter	-12.9188
▁consumer	-12.9188
▁trailer	-12.9189
▁batches	-12.9189
▁dish	-12.9189
▁cox	-12.9191
▁hardly	-12.9193
▁functioning	-12.9199
▁newest	-12.9202
▁noah	-12.9204
▁vp	-12.9205
▁equity	-12.921
▁trucking	-12.9214
▁rely	-12.9225
▁hangup	-12.9241
▁continues	-12.9246
▁cast	-12.9248
▁stat	-12.9279
ine	-12.9281
▁effects	-12.9287
▁limits	-12.9295
▁aid	-12.9331
▁cream	-12.9348
record	-12.9351
▁intend	-12.9367
▁insert	-12.9368
▁instruct	-12.9368
▁assess	-12.9368
▁empower	-12.9369
▁caleb	-12.9369
▁cheese	-12.9369
▁correspondence	-12.9369
▁registry	-12.9369
▁terrific	-12.9369
▁taught	-12.9369
▁continuing	-12.9369
▁sonny	-12.937
▁unplugged	-12.937
▁classes	-12.937
▁affiliated	-12.9371
▁cancelling	-12.9371
▁raining	-12.9374
▁indiana	-12.9374
▁installer	-12.938
▁exporting	-12.9387
▁ro	-12.9387
▁falling	-12.9387
▁tenth	-12.9389
▁squared	-12.9393
▁lucas	-12.9395
ar	-12.9406
▁plain	-12.9417
▁residential	-12.9419
▁facts	-12.9537
▁persists	-12.9543
▁browse	-12.9552
▁suspend	-12.9552
▁lift	-12.9552
▁audrey	-12.9554
▁authorizing	-12.9554
▁cesar	-12.9554
▁identified	-12.9554
▁jabra	-12.9554
▁occupied	-12.9554
▁reregister	-12.9554
▁shelby	-12.9554
▁teresa	-12.9554
▁veronica	-12.9554
▁iowa	-12.9555
▁visibility	-12.9555
▁geez	-12.9555
▁nevermind	-12.9555
▁speakerphone	-12.9555
▁$27	-12.9555
▁rico	-12.9555
▁blinking	-12.9555
▁crashing	-12.9555
elecommunication	-12.9556
▁dashes	-12.9556
▁sickly	-12.9556
▁le	-12.9557
▁renewed	-12.9557
▁linden	-12.9558
▁booth	-12.9559
▁assets	-12.956
▁lessen	-12.956
▁brady	-12.956
▁announcement	-12.9561
▁choir	-12.9562
▁medicare	-12.9563
▁drivers	-12.957
ish	-12.9571
▁eligible	-12.9578
▁burger	-12.9578
ba	-12.9582
▁corn	-12.9592
ally	-12.9596
▁supplies	-12.9609
ur	-12.963
▁jan	-12.9635
▁kit	-12.9638
▁pasted	-12.9651
ous	-12.9652
▁interactions	-12.9662
▁clip	-12.972
▁alternate	-12.9743
▁awful	-12.9743
▁jacqueline	-12.9743
▁selves	-12.9743
▁variable	-12.9743
▁honor	-12.9743
▁responsible	-12.9743
▁outcome	-12.9743
▁replies	-12.9743
▁jean	-12.9743
▁counseling	-12.9743
▁someplace	-12.9744
▁spencer	-12.9744
▁downtown	-12.9744
▁treated	-12.9744
▁parker	-12.9744
profit	-12.9745
▁scared	-12.9746
▁metal	-12.9747
▁covering	-12.9748
▁carly	-12.9751
▁badge	-12.9753
▁began	-12.9757
▁consultant	-12.9761
▁printer	-12.9761
▁shoe	-12.9763
▁rena	-12.9774
▁careers	-12.9778
▁complaints	-12.9792
▁concerning	-12.9793
▁sf	-12.9827
▁corp	-12.9845
▁explains	-12.9853
ment	-12.9901
▁rank	-12.9913
▁garden	-12.9934
▁establish	-12.9935
▁trunk	-12.9935
▁sufficient	-12.9935
▁alliance	-12.9935
▁congress	-12.9935
▁faith	-12.9935
▁payroll	-12.9935
▁tennessee	-12.9935
▁urgency	-12.9935
▁england	-12.9935
▁southern	-12.9935
▁honey	-12.9935
▁stamp	-12.9936
▁continuously	-12.9936
▁controlled	-12.9936
▁vince	-12.9936
▁poly	-12.9936
▁pertaining	-12.9937
▁leak	-12.9938
▁triggered	-12.9939
▁attempting	-12.9941
▁subscriber	-12.9942
▁importing	-12.9944
▁documented	-12.9944
▁merchant	-12.9944
▁chelsea	-12.9944
▁presenting	-12.9946
▁widget	-12.9948
▁improvement	-12.9956
▁confer	-12.9959
▁champion	-12.996
▁scene	-12.996
▁skill	-12.9974
▁writer	-12.998
▁screening	-12.999
▁alley	-12.9999
▁spread	-13.0007
▁ji	-13.0009
▁editing	-13.0011
▁calm	-13.0015
▁greater	-13.0017
▁lawn	-13.0019
▁factors	-13.0037
▁chan	-13.0048
▁hero	-13.0069
▁bert	-13.0075
▁cuts	-13.0097
▁russia	-13.0108
▁pest	-13.0108
▁kristin	-13.0129
▁deploy	-13.0129
▁education	-13.0131
▁animal	-13.0132
▁arlene	-13.0132
▁charlotte	-13.0132
▁martha	-13.0132
▁mitchell	-13.0132
▁transportation	-13.0132
▁troy	-13.0132
▁forgive	-13.0132
▁deducted	-13.0132
▁patel	-13.0132
▁keystone	-13.0132
▁grading	-13.0132
▁halfway	-13.0132
▁rectory	-13.0132
misunderstanding	-13.0132
▁restricted	-13.0132
▁overview	-13.0133
▁extent	-13.0133
▁charting	-13.0134
▁herbert	-13.0134
▁admissions	-13.014
▁dynamic	-13.0152
▁wasting	-13.0157
▁physician	-13.0158
▁bike	-13.0158
▁listened	-13.0164
▁copying	-13.0173
▁fish	-13.0196
ive	-13.0209
▁closest	-13.022
▁beth	-13.0241
▁pieces	-13.0242
▁janet	-13.0286
▁asha	-13.0287
▁functional	-13.0302
▁sources	-13.0302
▁froze	-13.0309
ness	-13.031
▁circles	-13.031
▁pipe	-13.0316
▁announce	-13.0325
less	-13.0326
▁stress	-13.0329
▁camille	-13.0332
▁freezing	-13.0332
▁nightmare	-13.0332
▁numerous	-13.0332
▁ontario	-13.0332
▁replicating	-13.0332
▁universal	-13.0332
▁whiskey	-13.0332
▁curiosity	-13.0332
▁digging	-13.0332
▁joke	-13.0332
▁ruben	-13.0332
▁advertisement	-13.0332
▁pretend	-13.0332
▁lewis	-13.0332
▁2:30	-13.0332
▁sbc	-13.0332
▁percentage	-13.0332
▁trey	-13.0333
▁outstanding	-13.0333
▁throwing	-13.0334
▁brokerage	-13.0341
▁appeared	-13.0344
▁qualify	-13.0355
▁intern	-13.0355
▁nana	-13.0362
▁nicky	-13.0383
▁pi	-13.0386
▁concert	-13.039
▁timer	-13.0395
▁disconnects	-13.0398
▁communicated	-13.0398
▁nap	-13.0401
▁cables	-13.0409
▁domains	-13.0411
▁fell	-13.0412
▁ex	-13.0414
▁noises	-13.0429
▁ideas	-13.0465
▁docs	-13.0492
ler	-13.0494
ay	-13.0511
▁roy	-13.0518
▁levels	-13.052
▁lessons	-13.052
▁connor	-13.0523
▁ap	-13.0527
▁combine	-13.0529
▁tips	-13.0534
▁consult	-13.0534
▁battle	-13.0536
▁beverly	-13.0536
▁currency	-13.0536
▁destination	-13.0536
▁excluding	-13.0536
▁murphy	-13.0536
▁naval	-13.0536
▁nervous	-13.0536
▁northern	-13.0536
▁submission	-13.0536
▁tampa	-13.0536
▁sunny	-13.0536
▁config	-13.0536
▁godaddy	-13.0536
▁partnership	-13.0536
▁maggie	-13.0536
▁theater	-13.0536
▁oliver	-13.0536
▁sidebar	-13.0536
▁authenticate	-13.0537
▁aligned	-13.0537
▁mouthy	-13.0537
▁downside	-13.054
▁teaching	-13.0541
▁prospect	-13.0541
▁moto	-13.0553
▁bridget	-13.0555
▁passing	-13.0559
▁fear	-13.056
▁touching	-13.0565
▁foc	-13.0566
▁walter	-13.0566
▁domo	-13.057
▁teen	-13.0572
▁dang	-13.0585
▁rail	-13.059
▁keywords	-13.0592
▁lan	-13.0598
▁wear	-13.0611
▁cp	-13.0615
▁ho	-13.0617
▁win	-13.065
▁developers	-13.0655
um	-13.0662
ary	-13.0678
▁ab	-13.0686
▁brenda	-13.0721
da	-13.0721
ron	-13.0723
▁confidential	-13.0744
▁overlap	-13.0744
▁accent	-13.0744
▁arkansas	-13.0744
▁dinner	-13.0744
▁ladies	-13.0744
▁olivia	-13.0744
▁pennsylvania	-13.0744
▁pamela	-13.0744
▁cheapest	-13.0744
▁wake	-13.0744
▁bradley	-13.0744
▁4:30	-13.0744
▁russell	-13.0744
▁penny	-13.0745
▁forcing	-13.0745
▁hidden	-13.0745
▁briefly	-13.0746
▁haul	-13.0747
▁stack	-13.075
▁reflected	-13.075
▁looping	-13.0753
▁finishing	-13.0762
▁arrive	-13.0768
▁payable	-13.078
▁competitor	-13.0782
▁headquarters	-13.0783
▁dick	-13.0803
▁reminders	-13.0806
▁caused	-13.0836
▁australian	-13.0841
▁cape	-13.0843
▁teammates	-13.0891
lo	-13.0893
▁folders	-13.09
id	-13.0944
▁ella	-13.0948
▁reconfigure	-13.0949
▁bundle	-13.095
▁complet	-13.0953
▁treat	-13.0953
dy	-13.0954
▁suspect	-13.0955
▁cough	-13.0956
▁catalina	-13.0957
▁ethan	-13.0957
▁missouri	-13.0957
▁monique	-13.0957
▁ohio	-13.0957
▁ronald	-13.0957
▁sember	-13.0957
▁yealink	-13.0957
▁joanna	-13.0957
▁motion	-13.0957
▁gordon	-13.0957
▁dalton	-13.0957
▁shopping	-13.0957
▁niro	-13.0957
▁raw	-13.0957
▁rude	-13.0957
▁clay	-13.0957
▁consistently	-13.0957
▁tommy	-13.0957
▁cti	-13.0957
▁serving	-13.0958
▁nash	-13.0958
▁trisha	-13.0958
▁bread	-13.0958
▁conditioning	-13.0958
▁marco	-13.096
▁issued	-13.096
▁misses	-13.096
▁$70	-13.096
▁ne	-13.0962
▁statuses	-13.0964
▁invest	-13.0964
▁fisher	-13.0966
▁specified	-13.0967
▁lifestyles	-13.0974
▁described	-13.0977
▁bella	-13.0979
▁sequential	-13.0984
▁tmobile	-13.0997
▁laid	-13.1001
▁promotions	-13.1021
▁assumed	-13.1055
▁expectations	-13.1058
ping	-13.1065
▁joel	-13.11
▁pot	-13.1131
▁strip	-13.114
▁mon	-13.1147
▁vip	-13.1158
▁formal	-13.1163
▁transit	-13.1173
▁charlene	-13.1174
▁disabling	-13.1174
▁female	-13.1174
▁kristen	-13.1174
▁miranda	-13.1174
▁oklahoma	-13.1174
▁liking	-13.1174
▁interference	-13.1174
▁conversion	-13.1174
▁overcome	-13.1174
▁nyc	-13.1174
▁naturally	-13.1175
▁dumped	-13.1175
▁wild	-13.1177
▁converter	-13.1177
▁badly	-13.1183
▁bold	-13.1183
▁children	-13.1186
▁lighting	-13.1188
▁locking	-13.1191
▁nova	-13.1191
▁pst	-13.1194
▁refresher	-13.1195
▁viewer	-13.1197
▁echoing	-13.1198
▁featured	-13.12
▁programming	-13.1201
▁recognizes	-13.1202
▁vans	-13.121
▁cafe	-13.1211
▁minister	-13.1211
▁lap	-13.1217
▁bookmark	-13.1218
▁45	-13.122
▁tutorial	-13.1221
▁ph	-13.1224
▁merged	-13.1224
▁remains	-13.1224
▁steppe	-13.1225
▁inch	-13.1225
▁kid	-13.1227
▁gmt	-13.1241
▁beer	-13.1243
▁sh	-13.1255
▁evans	-13.1255
▁carters	-13.1266
▁fingers	-13.1277
▁owe	-13.1325
▁grill	-13.1377
▁personalize	-13.1392
▁mails	-13.1394
▁flood	-13.1396
▁deposit	-13.1396
▁arizona	-13.1396
▁baltimore	-13.1396
▁benchmark	-13.1396
▁entries	-13.1396
▁false	-13.1396
▁garcia	-13.1396
▁genesis	-13.1396
▁hashtag	-13.1396
▁junior	-13.1396
▁malaysia	-13.1396
▁terminology	-13.1396
▁distribution	-13.1396
▁midwest	-13.1396
▁riley	-13.1396
▁risa	-13.1396
▁zach	-13.1396
▁$21	-13.1397
▁standby	-13.1397
▁fastest	-13.1397
▁wearing	-13.1398
▁tennis	-13.1398
▁rj	-13.1399
▁vale	-13.1399
▁bosses	-13.1399
▁deactivated	-13.1402
▁larger	-13.1404
▁personalized	-13.1405
▁inspect	-13.1407
▁christmas	-13.1407
▁mainland	-13.1408
▁useless	-13.1408
▁chill	-13.1412
il	-13.1427
▁blocks	-13.1429
per	-13.1432
▁cup	-13.1434
▁deliver	-13.1439
▁bullet	-13.1441
▁transcriptions	-13.1452
▁attendees	-13.1454
▁phrase	-13.1455
▁hiccups	-13.1474
▁christ	-13.1481
▁contains	-13.1498
▁ami	-13.1517
ham	-13.1542
▁ba	-13.1556
▁span	-13.1562
ful	-13.1568
▁bin	-13.1579
▁cent	-13.1592
▁draw	-13.1597
▁pounds	-13.1612
▁publish	-13.1621
▁bump	-13.1623
▁boost	-13.1623
▁complex	-13.1624
▁avatar	-13.1624
▁ellie	-13.1624
▁encourage	-13.1624
▁idaho	-13.1624
▁industries	-13.1624
▁presume	-13.1624
▁principal	-13.1624
▁strategy	-13.1624
▁terminal	-13.1624
▁shuttle	-13.1624
▁occurring	-13.1624
▁janice	-13.1624
▁robotic	-13.1624
▁adele	-13.1624
▁10:30	-13.1624
▁dnc	-13.1624
▁spain	-13.1624
▁playlist	-13.1624
▁regret	-13.1624
▁pissed	-13.1624
▁regionally	-13.1625
▁coal	-13.1625
▁blame	-13.1627
▁fixes	-13.1631
▁exported	-13.1637
▁btm	-13.1638
▁missy	-13.1652
▁saml	-13.1662
▁korean	-13.1664
▁relate	-13.1672
▁attack	-13.1678
▁equals	-13.168
▁cookie	-13.1684
▁cb	-13.17
▁lawyers	-13.1704
▁myers	-13.1712
▁wealth	-13.1728
▁invitees	-13.1728
side	-13.1732
io	-13.1743
▁collections	-13.1764
▁icy	-13.1779
▁icloud	-13.18
▁lasted	-13.1802
▁pets	-13.1818
▁memorize	-13.1849
▁brooke	-13.1856
▁centurylink	-13.1856
▁coordinator	-13.1856
▁dummy	-13.1856
▁herself	-13.1856
▁kareem	-13.1856
▁therapy	-13.1856
▁unsupported	-13.1856
▁unsure	-13.1856
▁association	-13.1856
▁steel	-13.1856
▁sentiment	-13.1856
▁variety	-13.1856
▁keller	-13.1856
▁talent	-13.1856
▁haley	-13.1856
▁roxanne	-13.1856
▁scary	-13.1856
▁franklin	-13.1856
▁whatsapp	-13.1857
▁independently	-13.1857
▁compass	-13.1857
▁blast	-13.1857
▁charter	-13.1858
▁jana	-13.186
▁massive	-13.186
▁deny	-13.186
▁seated	-13.1861
▁booted	-13.1861
▁wave	-13.1862
▁researching	-13.1866
▁wondered	-13.1867
▁restoration	-13.1867
▁rise	-13.1892
▁gym	-13.1893
▁billy	-13.1907
▁increased	-13.1909
▁edited	-13.1912
▁neighbor	-13.1914
▁tablets	-13.1919
land	-13.1919
▁lastly	-13.1921
▁philippine	-13.1922
▁hash	-13.1927
▁legs	-13.193
the	-13.194
▁shaw	-13.1986
▁lo	-13.2018
▁competitors	-13.2051
wide	-13.2061
▁stats	-13.2084
▁migrate	-13.2087
▁thousands	-13.2091
▁spray	-13.2093
▁seamless	-13.2094
▁transmit	-13.2094
▁collate	-13.2094
credibly	-13.2094
▁conclusion	-13.2094
▁connecticut	-13.2094
▁creative	-13.2094
▁damage	-13.2094
▁elsewhere	-13.2094
▁exam	-13.2094
▁guidance	-13.2094
▁lindsay	-13.2094
▁mandatory	-13.2094
▁pencil	-13.2094
▁reconnaissance	-13.2094
▁solomon	-13.2094
▁teleconference	-13.2094
▁rudy	-13.2094
▁rosie	-13.2094
▁joanne	-13.2094
▁aidan	-13.2094
▁legit	-13.2094
▁grew	-13.2094
▁robbie	-13.2094
▁spa	-13.2094
▁recruiter	-13.2095
▁published	-13.2095
▁acceptable	-13.2096
▁gaining	-13.2097
▁exceeding	-13.2097
▁lookout	-13.2098
▁crown	-13.2101
▁rack	-13.2102
▁converting	-13.2104
▁cry	-13.2108
▁packages	-13.2108
▁reasonable	-13.2108
▁norman	-13.2109
▁royal	-13.2117
▁integrates	-13.212
pe	-13.2127
▁salt	-13.2127
▁dis	-13.2138
▁warn	-13.2138
▁worker	-13.2145
▁mrs	-13.2152
▁egg	-13.2153
▁filipino	-13.2156
▁reflects	-13.2159
▁mina	-13.2161
▁http	-13.2165
▁elements	-13.2194
▁trees	-13.2206
▁sla	-13.2208
▁fo	-13.2209
▁dock	-13.2225
▁hills	-13.2225
▁rc	-13.2257
▁unmuted	-13.2262
▁intel	-13.2264
▁surveys	-13.23
▁dominic	-13.2303
▁pump	-13.2331
▁bite	-13.2332
▁finalize	-13.2332
▁freak	-13.2336
▁contest	-13.2336
ter	-13.2336
▁neat	-13.2336
▁troll	-13.2338
▁interfere	-13.2338
▁border	-13.2338
▁ellery	-13.2338
▁igloo	-13.2338
▁journey	-13.2338
▁kramer	-13.2338
▁merging	-13.2338
▁ministries	-13.2338
▁misunderstood	-13.2338
▁seattle	-13.2338
▁standalone	-13.2338
▁stride	-13.2338
▁valuable	-13.2338
▁japan	-13.2338
▁spike	-13.2338
▁artist	-13.2338
▁eteam	-13.2338
▁mercy	-13.2338
▁sanya	-13.2338
▁modern	-13.2338
▁smoothly	-13.2338
▁popular	-13.2338
▁operational	-13.2339
▁drei	-13.2339
▁reverted	-13.2341
▁enhanced	-13.2341
▁manny	-13.2341
▁beeping	-13.2341
▁distributed	-13.2341
▁pairing	-13.2341
▁napa	-13.2342
▁reminded	-13.2343
▁portland	-13.2343
▁appstore	-13.2344
▁betty	-13.235
▁cancer	-13.2356
▁lived	-13.236
▁weekdays	-13.2362
ri	-13.2373
▁$3,	-13.2374
▁backwards	-13.2384
▁ticketing	-13.2393
▁ra	-13.2394
▁bag	-13.2404
▁ruth	-13.2409
▁bb	-13.2412
▁interior	-13.2412
▁airline	-13.2413
▁teammate	-13.2414
▁venture	-13.2414
ick	-13.2418
▁wedding	-13.2419
▁guaranteed	-13.2422
▁democrats	-13.2437
▁bookings	-13.2439
▁raj	-13.2447
▁bloom	-13.2466
hi	-13.2542
▁caps	-13.2543
▁spots	-13.2546
▁doors	-13.2569
▁na	-13.2578
▁holdings	-13.2579
▁prime	-13.2586
▁sponsor	-13.2587
▁succeed	-13.2587
▁mental	-13.2588
▁continuous	-13.2588
▁ample	-13.2588
▁ginger	-13.2588
▁infrastructure	-13.2588
▁katherine	-13.2588
▁library	-13.2588
▁mendoza	-13.2588
▁mexican	-13.2588
▁micheal	-13.2588
▁pablo	-13.2588
▁swear	-13.2588
▁tanner	-13.2588
▁domestic	-13.2588
▁bidding	-13.2588
▁elaine	-13.2588
▁garage	-13.2588
▁bouncing	-13.2588
▁jenna	-13.2588
▁chef	-13.2588
▁cammie	-13.2588
▁shutting	-13.2588
▁spoofing	-13.2589
▁maryland	-13.2589
▁robinson	-13.2589
graphical	-13.2589
▁lsd	-13.2593
▁acquired	-13.2595
▁sole	-13.2596
▁decks	-13.2599
▁rerouted	-13.2599
▁transport	-13.26
▁filtered	-13.26
▁pr	-13.2601
▁processes	-13.2602
▁becca	-13.2607
▁prayers	-13.2608
▁graded	-13.2619
▁eva	-13.2626
▁quoted	-13.2632
▁mia	-13.2635
▁sonia	-13.2635
▁israel	-13.2645
▁cure	-13.2648
▁marine	-13.2656
ng	-13.266
ch	-13.2661
▁abandon	-13.2662
▁berg	-13.2664
▁slot	-13.2697
ki	-13.2711
▁born	-13.2724
▁wash	-13.2742
off	-13.2762
▁sl	-13.2769
▁$9	-13.2818
▁scripts	-13.2822
▁displays	-13.2839
▁prince	-13.2841
▁unblock	-13.2843
▁resort	-13.2844
▁knee	-13.2845
▁advisable	-13.2845
▁analysis	-13.2845
▁audible	-13.2845
▁cathy	-13.2845
▁compatibility	-13.2845
▁evidence	-13.2845
▁hudson	-13.2845
▁intuitive	-13.2845
▁jamaica	-13.2845
▁minnesota	-13.2845
▁panasonic	-13.2845
▁thrive	-13.2845
▁zulu	-13.2845
▁karisa	-13.2845
▁observation	-13.2845
▁rohan	-13.2845
▁dealership	-13.2845
▁university	-13.2845
▁melfi	-13.2845
▁zack	-13.2845
▁rollover	-13.2845
▁debit	-13.2845
▁11:30	-13.2845
▁branches	-13.2845
▁grady	-13.2845
▁hu	-13.2845
▁peterson	-13.2845
▁philly	-13.2845
▁bumped	-13.2845
▁visually	-13.2847
▁flying	-13.2848
▁condo	-13.2848
▁reloaded	-13.2849
▁trusted	-13.2851
▁sex	-13.2852
▁combined	-13.2853
▁blood	-13.2855
▁milan	-13.2859
▁tc	-13.2861
qu	-13.2869
dialpad	-13.2879
▁methods	-13.2879
▁alive	-13.2879
▁exe	-13.2879
▁sessions	-13.2888
▁usable	-13.2893
▁packets	-13.2894
▁barn	-13.2896
be	-13.2906
tic	-13.2909
▁detects	-13.2909
one	-13.2911
▁raul	-13.2918
▁pilot	-13.2927
▁gc	-13.2927
▁discipline	-13.2927
▁nonprofit	-13.2928
▁freeze	-13.2932
▁outlet	-13.2935
▁jet	-13.2936
▁brands	-13.2942
▁pointed	-13.2948
▁degree	-13.296
▁bio	-13.2983
▁deals	-13.2992
▁stores	-13.3009
▁serves	-13.3013
▁optic	-13.3042
pa	-13.3045
▁li	-13.3047
:45	-13.305
ate	-13.3073
▁marsha	-13.3077
▁$4	-13.3094
▁fashion	-13.31
▁manages	-13.3103
▁categories	-13.3108
▁circling	-13.3108
▁damon	-13.3108
▁dentamark	-13.3108
▁dorothy	-13.3108
▁elaborate	-13.3108
▁gavin	-13.3108
▁histories	-13.3108
▁levy	-13.3108
▁populating	-13.3108
▁rotating	-13.3108
▁tedious	-13.3108
▁thailand	-13.3108
▁housing	-13.3108
▁solving	-13.3108
▁subscribing	-13.3108
▁underlying	-13.3108
▁temple	-13.3108
▁dozen	-13.3108
▁automotive	-13.3108
▁relatively	-13.3108
▁golden	-13.3108
▁comparing	-13.3108
▁mount	-13.3108
▁hector	-13.3108
▁acquire	-13.3109
▁army	-13.3109
▁polly	-13.3109
▁flush	-13.3109
▁alexis	-13.3109
▁nineteenth	-13.311
▁killing	-13.3111
▁virtually	-13.3111
▁alerted	-13.3112
▁dj	-13.3114
▁expanding	-13.3115
▁posting	-13.3117
▁essential	-13.3119
▁institute	-13.312
▁dirty	-13.3121
▁dust	-13.3121
▁subscribed	-13.3134
▁handed	-13.3135
▁twin	-13.3137
▁syngenta	-13.3141
▁marion	-13.3142
▁rap	-13.315
▁inah	-13.315
▁simpler	-13.3152
▁stall	-13.3154
▁customized	-13.3161
▁fancy	-13.3163
▁shirt	-13.3185
▁font	-13.3198
▁bottle	-13.3202
▁analytic	-13.3202
▁pmi	-13.3207
▁acquisition	-13.3215
▁nicer	-13.3229
▁oversee	-13.3246
▁cl	-13.3277
ro	-13.3286
rd	-13.3288
▁projects	-13.3289
▁owning	-13.3314
▁roles	-13.3357
▁triggers	-13.3361
ko	-13.3367
▁scam	-13.3368
▁deactivate	-13.3371
▁consent	-13.3377
▁bomb	-13.3377
▁blair	-13.3378
▁deletion	-13.3378
▁hernandez	-13.3378
▁illinois	-13.3378
▁lincoln	-13.3378
▁module	-13.3378
▁reoccurring	-13.3378
▁stretch	-13.3378
▁surgery	-13.3378
▁wisconsin	-13.3378
▁evil	-13.3378
▁married	-13.3378
▁ferguson	-13.3378
▁jury	-13.3378
▁campus	-13.3378
▁turf	-13.3378
▁swapping	-13.3378
▁dying	-13.3378
▁partial	-13.3379
▁foundation	-13.338
▁masking	-13.3381
▁inverted	-13.3382
▁neutral	-13.3391
aible	-13.3405
▁worded	-13.341
▁earphones	-13.3416
▁secured	-13.3419
▁electrical	-13.342
▁rp	-13.3424
▁bearing	-13.3431
▁straighten	-13.3451
▁spark	-13.3467
▁sensor	-13.3471
ant	-13.3473
enter	-13.3492
▁filed	-13.3506
▁fails	-13.3526
▁couriers	-13.3542
▁relations	-13.3546
▁specialize	-13.3604
▁reviews	-13.3605
▁consultants	-13.363
▁ratio	-13.3633
▁expires	-13.3645
▁consume	-13.3647
▁ka	-13.3648
▁gauge	-13.3649
▁investments	-13.3655
▁arthur	-13.3656
▁audience	-13.3656
▁carpet	-13.3656
▁caviar	-13.3656
▁chief	-13.3656
▁disability	-13.3656
▁esther	-13.3656
▁fifties	-13.3656
▁harold	-13.3656
▁luxury	-13.3656
▁raleigh	-13.3656
▁describing	-13.3656
▁mirna	-13.3656
▁introduction	-13.3656
▁lopez	-13.3656
▁curry	-13.3656
▁shirley	-13.3656
▁subnet	-13.3656
▁deployment	-13.3656
▁ownership	-13.3656
▁hassle	-13.3656
▁reconfirm	-13.3656
▁neck	-13.3656
▁crashed	-13.3657
▁cfo	-13.3657
▁felicia	-13.3657
▁disconnection	-13.3658
▁administer	-13.3658
▁intention	-13.3658
▁echoes	-13.3659
▁brazil	-13.366
▁performing	-13.3661
▁refused	-13.3662
▁allied	-13.3664
▁connector	-13.3665
▁fourteenth	-13.3667
▁pure	-13.3667
▁foods	-13.3671
▁brandy	-13.3672
▁enroll	-13.3677
▁wellness	-13.3684
▁th	-13.3685
▁mondays	-13.3687
▁consideration	-13.3689
▁captured	-13.3695
▁marina	-13.37
▁rig	-13.3701
▁recon	-13.3702
ck	-13.3704
ned	-13.3708
▁gi	-13.3721
lin	-13.3724
▁resellers	-13.3735
▁led	-13.3742
▁winter	-13.3751
▁titled	-13.3754
▁lies	-13.3764
▁nose	-13.3765
▁relation	-13.3767
▁collection	-13.3767
nce	-13.3774
▁yard	-13.3801
org	-13.3835
▁rosa	-13.3839
▁cu	-13.3868
▁reno	-13.3882
lute	-13.3883
▁mis	-13.3902
▁restaurants	-13.3906
▁scenes	-13.391
▁bu	-13.3914
▁object	-13.3915
▁pal	-13.3927
ard	-13.3927
▁crash	-13.3939
▁pertain	-13.394
▁casual	-13.3941
▁absolute	-13.3941
▁bianca	-13.3941
▁bullshit	-13.3941
▁bureau	-13.3941
▁century	-13.3941
▁criteria	-13.3941
▁gerald	-13.3941
▁hamilton	-13.3941
▁midnight	-13.3941
▁montana	-13.3941
▁mystery	-13.3941
▁navigation	-13.3941
▁plaza	-13.3941
▁praise	-13.3941
▁squad	-13.3941
▁sunrise	-13.3941
▁workaround	-13.3941
▁earpiece	-13.3942
▁fleet	-13.3942
▁congestion	-13.3942
▁medium	-13.3942
▁nationwide	-13.3942
▁airport	-13.3942
▁becky	-13.3942
▁etc	-13.3942
▁gregory	-13.3942
▁webpage	-13.3942
▁tucker	-13.3942
▁shang	-13.3942
▁deadline	-13.3942
▁trina	-13.3943
▁endpoint	-13.3944
▁collected	-13.3944
▁slower	-13.3944
▁differ	-13.3945
▁passes	-13.3945
▁nuts	-13.3945
▁scripting	-13.3946
▁manner	-13.3946
▁expanded	-13.3946
▁inboxes	-13.3947
▁harder	-13.395
▁mega	-13.3951
▁recalling	-13.3953
▁headed	-13.3957
▁filtering	-13.3964
▁hack	-13.3967
ek	-13.3985
▁promote	-13.3986
▁bush	-13.3987
▁claims	-13.4009
▁tele	-13.401
eo	-13.4027
▁involve	-13.4054
▁represent	-13.4056
▁allan	-13.4058
▁aspect	-13.4059
▁bone	-13.4059
▁nickel	-13.4059
▁paint	-13.4065
▁gal	-13.4081
▁scheduler	-13.4084
▁juliet	-13.4108
▁commerce	-13.4146
▁fe	-13.4161
▁prospects	-13.4188
▁cr	-13.4188
▁voters	-13.4196
▁receipts	-13.4216
▁anton	-13.4217
▁crowd	-13.4223
▁slip	-13.4228
▁discontinue	-13.4229
▁calculate	-13.423
▁tutor	-13.4235
▁crawl	-13.4236
▁shortcut	-13.4236
▁alexander	-13.4236
▁assembly	-13.4236
▁courtesy	-13.4236
▁francesca	-13.4236
▁funnel	-13.4236
▁identity	-13.4236
▁integrity	-13.4236
▁kentucky	-13.4236
▁meanwhile	-13.4236
▁ramirez	-13.4236
▁responsive	-13.4236
▁shield	-13.4236
▁trevor	-13.4236
▁unquote	-13.4236
▁despite	-13.4236
▁jody	-13.4236
▁personnel	-13.4236
▁claudia	-13.4236
▁drug	-13.4236
▁consuming	-13.4236
▁joyce	-13.4236
▁gaming	-13.4236
▁automation	-13.4236
▁purely	-13.4236
▁$14	-13.4236
▁handful	-13.4236
▁vary	-13.4237
▁inteliquent	-13.4237
▁permitted	-13.4237
▁quarterly	-13.4237
▁reconnected	-13.424
▁collecting	-13.424
▁rocky	-13.4241
▁tate	-13.4241
▁kite	-13.4241
▁paris	-13.4243
▁columns	-13.4245
▁searches	-13.425
▁blocker	-13.4251
▁attic	-13.4253
▁slashes	-13.426
▁palm	-13.4272
▁jam	-13.4272
▁fired	-13.4272
▁viewed	-13.4279
▁trucks	-13.4281
▁dp	-13.4281
house	-13.4284
▁remembered	-13.4299
▁zones	-13.4308
ite	-13.434
▁porter	-13.4344
▁te	-13.4349
▁robot	-13.4351
▁nail	-13.4359
▁contractor	-13.4364
▁cha	-13.437
▁mill	-13.4438
▁outages	-13.4439
▁sing	-13.4456
▁dip	-13.4458
▁mighty	-13.446
▁poll	-13.4471
▁lc	-13.4493
▁den	-13.4496
▁campaigns	-13.4502
ha	-13.4512
▁seek	-13.4523
▁ward	-13.4524
▁storm	-13.4538
▁dustin	-13.4538
▁asterisk	-13.4539
▁cincinnati	-13.4539
▁grateful	-13.4539
▁guinea	-13.4539
▁jasper	-13.4539
▁kylie	-13.4539
▁mixture	-13.4539
▁nevada	-13.4539
▁voyager	-13.4539
▁angry	-13.4539
▁luckily	-13.4539
▁windstream	-13.4539
▁calculation	-13.4539
▁kelsey	-13.4539
▁camaro	-13.4539
▁filing	-13.4539
▁retention	-13.4539
▁kenneth	-13.4539
▁okeydokey	-13.4539
▁singer	-13.4539
▁lending	-13.4539
▁trent	-13.4539
▁rerun	-13.4539
▁marty	-13.454
▁lte	-13.454
▁italy	-13.454
▁mood	-13.454
▁sink	-13.4541
▁funded	-13.4541
▁billion	-13.4542
▁irish	-13.4552
▁rabbit	-13.4553
▁$4,	-13.4553
▁tracked	-13.4555
▁yell	-13.4561
▁hunting	-13.4587
▁par	-13.4589
▁promised	-13.4596
▁lemon	-13.4597
▁ke	-13.4602
▁males	-13.4613
▁insights	-13.4616
▁craft	-13.4628
▁cute	-13.4632
▁crest	-13.465
▁guided	-13.466
▁faq	-13.4672
▁reboots	-13.4677
▁dispatcher	-13.4678
▁solo	-13.4679
▁trans	-13.4682
▁clinics	-13.4682
▁vine	-13.469
▁populates	-13.4701
▁diamond	-13.4707
posing	-13.4728
▁acquisitions	-13.4739
▁startups	-13.4752
▁solves	-13.4755
▁arm	-13.4769
ville	-13.4773
▁stands	-13.484
▁bait	-13.485
▁brooks	-13.4851
▁buddies	-13.4851
▁fusion	-13.4851
▁globe	-13.4851
▁indicating	-13.4851
▁pattern	-13.4851
▁queries	-13.4851
▁unnecessary	-13.4851
▁zoho	-13.4851
▁goldstein	-13.4851
▁agenda	-13.4851
▁dumpster	-13.4851
▁gabby	-13.4851
▁tiger	-13.4851
▁cohen	-13.4851
▁electronic	-13.4851
▁drill	-13.4851
▁jira	-13.4851
▁persistent	-13.4851
▁cabinet	-13.4851
▁roadside	-13.4851
▁daddy	-13.4851
▁mika	-13.4852
▁warner	-13.4852
▁wholesale	-13.4852
▁crane	-13.4852
▁knowledgeable	-13.4852
▁growth	-13.4852
▁pinpoint	-13.4852
▁village	-13.4853
▁ireland	-13.4853
▁relying	-13.4853
▁renter	-13.4855
▁visualize	-13.4855
▁mandy	-13.4855
▁liam	-13.4855
▁breach	-13.4856
▁randall	-13.4858
▁dogs	-13.4859
▁adventure	-13.4866
▁brokers	-13.4866
▁bull	-13.4882
▁ski	-13.4882
▁rising	-13.4887
▁pursue	-13.4889
▁von	-13.4893
▁founded	-13.4899
kay	-13.4901
▁del	-13.4905
▁beforehand	-13.4909
▁pasting	-13.4915
▁tune	-13.4937
▁banks	-13.4938
▁grown	-13.4939
term	-13.4965
▁eco	-13.4967
▁tears	-13.4978
▁machines	-13.4982
▁metric	-13.5
▁motor	-13.5
▁outline	-13.5005
▁indicates	-13.5031
ford	-13.5044
ize	-13.5077
▁boots	-13.5124
▁scenarios	-13.5146
ix	-13.5155
▁gm	-13.5156
▁taste	-13.5159
▁synchronize	-13.5167
▁surprise	-13.5167
▁waive	-13.5172
▁commend	-13.5173
▁morris	-13.5174
▁trench	-13.5174
▁brooklyn	-13.5174
▁bryson	-13.5174
▁challenging	-13.5174
▁committee	-13.5174
▁invoicing	-13.5174
▁minimal	-13.5174
▁muffled	-13.5174
▁outdoor	-13.5174
▁philadelphia	-13.5174
▁purple	-13.5174
▁revisit	-13.5174
▁ryzen	-13.5174
▁servicing	-13.5174
▁suspension	-13.5174
▁lucy	-13.5174
▁multiply	-13.5174
▁tagging	-13.5174
▁efax	-13.5174
▁softtech	-13.5174
▁01	-13.5174
▁bonus	-13.5174
▁leadership	-13.5174
▁cabin	-13.5174
▁forgotten	-13.5174
▁3:30	-13.5174
▁tapping	-13.5174
▁emitted	-13.5174
▁curse	-13.5174
▁realizing	-13.5174
▁mira	-13.5175
▁qualified	-13.5175
▁pile	-13.5175
▁drawing	-13.5176
▁neato	-13.5176
▁sku	-13.5178
▁conducting	-13.5178
▁irene	-13.5178
▁praying	-13.5179
▁logical	-13.5179
▁trio	-13.518
▁bothering	-13.5181
▁lana	-13.5181
▁cleaner	-13.5181
▁searchable	-13.5184
▁amir	-13.5187
▁wiped	-13.5189
▁catching	-13.5195
▁mailed	-13.5198
▁xx	-13.52
▁boards	-13.5219
▁stars	-13.5225
▁ko	-13.5228
mann	-13.5241
▁candidates	-13.5261
▁notation	-13.5264
▁aj	-13.5288
▁mi	-13.5292
▁cheers	-13.5317
▁genet	-13.5332
▁prop	-13.5363
▁ranch	-13.5367
ker	-13.5375
▁freezes	-13.5394
▁aol	-13.5409
depth	-13.5414
▁cab	-13.542
star	-13.5423
▁prob	-13.5433
▁sender	-13.5441
▁stefan	-13.5447
▁shake	-13.5449
ld	-13.5454
▁hunt	-13.5454
▁loose	-13.5455
▁invitations	-13.5457
▁skills	-13.5471
▁pod	-13.5482
▁peace	-13.5492
▁refuse	-13.55
▁fetch	-13.5505
▁jail	-13.5506
fa	-13.5506
▁alaska	-13.5507
▁dulce	-13.5507
▁exciting	-13.5507
▁margaret	-13.5507
▁marilyn	-13.5507
▁offense	-13.5507
▁quarantine	-13.5507
▁rahul	-13.5507
▁revenue	-13.5507
▁society	-13.5507
▁suzy	-13.5507
▁whitney	-13.5507
▁british	-13.5507
▁wallace	-13.5507
▁yvonne	-13.5507
▁paperwork	-13.5507
▁remainder	-13.5507
▁elderly	-13.5507
▁stanley	-13.5507
▁recipe	-13.5507
▁floating	-13.5507
▁navy	-13.5507
▁thanksgiving	-13.5507
▁cities	-13.5508
▁mixer	-13.551
▁paired	-13.551
▁movement	-13.5511
▁breaker	-13.5513
▁gee	-13.5514
▁mixing	-13.5515
▁amos	-13.5518
▁germ	-13.5519
▁chang	-13.5522
▁flexible	-13.5523
▁jeanette	-13.5523
▁messy	-13.5523
▁encountering	-13.5524
▁whose	-13.5528
▁arrows	-13.5532
▁additionally	-13.5539
▁recheck	-13.5541
▁refunds	-13.5542
▁inquired	-13.5544
▁cx	-13.5545
▁roberts	-13.5547
▁cart	-13.5554
▁sander	-13.5559
▁walls	-13.5562
▁painful	-13.5565
▁overtime	-13.5568
▁served	-13.557
▁root	-13.5595
▁ri	-13.5617
▁extract	-13.5617
▁perry	-13.5618
▁tr	-13.562
▁csm	-13.5622
▁secondly	-13.5667
▁vin	-13.5669
▁pd	-13.567
▁sticks	-13.5674
▁resident	-13.5675
▁wasted	-13.5676
▁bat	-13.5681
▁justice	-13.5686
▁tail	-13.5706
▁ages	-13.5726
10	-13.574
ring	-13.5755
▁graphic	-13.5771
▁bryan	-13.5789
▁rip	-13.5837
▁ty	-13.5844
▁dictate	-13.5844
▁exclude	-13.5845
▁gov	-13.585
▁republic	-13.5852
▁awkward	-13.5852
▁brilliant	-13.5852
▁britain	-13.5852
▁consecutive	-13.5852
▁discrepancy	-13.5852
▁espanyol	-13.5852
▁families	-13.5852
▁giovanni	-13.5852
▁inconvenient	-13.5852
▁nowadays	-13.5852
▁spirit	-13.5852
▁suffice	-13.5852
▁tiniest	-13.5852
▁upstairs	-13.5852
▁worship	-13.5852
▁java	-13.5852
▁sugar	-13.5852
▁extensive	-13.5852
▁lydia	-13.5852
▁sedan	-13.5852
▁vegas	-13.5852
▁walsh	-13.5852
▁cyber	-13.5852
▁tickle	-13.5852
▁drake	-13.5852
▁helios	-13.5852
▁beneficial	-13.5852
▁seventies	-13.5852
▁petition	-13.5852
▁grabbing	-13.5852
▁discovered	-13.5852
▁rica	-13.5852
▁dual	-13.5852
▁hunter	-13.5852
▁palmer	-13.5853
▁yep	-13.5853
▁pitcher	-13.5853
▁centralized	-13.5853
▁frankie	-13.5853
▁lifted	-13.5853
▁shack	-13.5854
▁washing	-13.5854
▁fishing	-13.5854
▁sherman	-13.5854
▁tam	-13.5854
▁cory	-13.5855
▁lance	-13.5856
▁accomplished	-13.5856
▁daylight	-13.5856
▁workout	-13.5859
▁gathering	-13.5861
▁credentialing	-13.5862
▁focused	-13.5862
▁nj	-13.5867
▁organizing	-13.5868
▁vices	-13.5872
▁sand	-13.5875
▁duplicates	-13.5879
▁temp	-13.588
▁kale	-13.5882
▁routers	-13.5882
▁db	-13.5885
▁rocco	-13.5888
▁sentien	-13.589
▁lu	-13.5892
▁shine	-13.5893
ble	-13.5893
▁pie	-13.5896
▁mailing	-13.5896
acted	-13.5906
▁heat	-13.5907
▁flick	-13.5926
▁enterprises	-13.5931
▁taxi	-13.5935
▁cli	-13.5943
▁tours	-13.5966
▁farmers	-13.598
ible	-13.599
▁sheets	-13.5999
▁concepts	-13.6018
▁darn	-13.6019
▁sellers	-13.6029
▁arise	-13.6029
▁seal	-13.6032
▁material	-13.6033
▁commands	-13.6035
▁hangout	-13.6037
▁refill	-13.6049
▁nda	-13.6063
ance	-13.6081
▁bust	-13.6082
ah	-13.6099
ting	-13.61
▁sen	-13.6102
▁loves	-13.6114
▁shan	-13.6162
we	-13.6166
▁monitors	-13.6199
▁slate	-13.6203
ola	-13.6205
▁treasure	-13.6206
▁authentic	-13.6207
▁mate	-13.6208
▁blink	-13.6208
▁circuit	-13.6209
▁columbus	-13.6209
▁congratulations	-13.6209
▁elena	-13.6209
▁increasing	-13.6209
▁kennedy	-13.6209
▁kroll	-13.6209
▁phoenix	-13.6209
▁problematic	-13.6209
▁ralph	-13.6209
▁reagan	-13.6209
▁struggle	-13.6209
▁miracle	-13.6209
▁stereo	-13.6209
▁bedroom	-13.6209
▁interim	-13.6209
▁senate	-13.6209
▁evidently	-13.6209
▁castle	-13.6209
▁homestead	-13.6209
▁customization	-13.6209
▁alison	-13.6209
▁modified	-13.6209
▁coleman	-13.6209
▁copper	-13.6209
▁timber	-13.6209
▁adamant	-13.6209
▁grain	-13.6209
▁farther	-13.6209
▁highway	-13.621
▁patty	-13.621
▁dating	-13.621
▁coaches	-13.621
▁idiot	-13.6212
▁colombian	-13.6215
▁gathered	-13.6215
▁unplugg	-13.6217
▁blessing	-13.6218
▁tls	-13.6218
▁migrated	-13.622
▁adriana	-13.6221
▁noreen	-13.6221
▁generation	-13.6226
▁rv	-13.6227
▁levin	-13.6228
▁wires	-13.6229
▁contracted	-13.6233
▁staffing	-13.6233
ff	-13.6241
▁steak	-13.6255
ad	-13.6267
▁duplicated	-13.6269
▁fl	-13.6269
▁gui	-13.6275
ho	-13.6277
▁memo	-13.6283
law	-13.6301
▁jr	-13.6308
▁cara	-13.631
▁pit	-13.6325
▁toggled	-13.6326
gen	-13.6347
▁cvs	-13.6349
▁hc	-13.6351
▁dev	-13.6362
▁ban	-13.6365
step	-13.637
▁labels	-13.6387
▁breath	-13.639
▁jo	-13.6394
▁tank	-13.6396
▁analyst	-13.64
▁launche	-13.6404
▁finger	-13.6404
▁involves	-13.6427
▁planet	-13.6433
▁meg	-13.6458
▁charger	-13.6463
che	-13.647
out	-13.6487
ent	-13.6495
enable	-13.6497
hat	-13.6498
ify	-13.6506
rry	-13.6516
▁editor	-13.6524
▁sony	-13.6527
ever	-13.6529
▁improvements	-13.654
▁rev	-13.6554
▁tran	-13.6568
▁insist	-13.6571
▁summers	-13.6573
▁adopt	-13.6576
▁wrappe	-13.6578
▁alfred	-13.6578
▁alarm	-13.6579
▁smooth	-13.6579
▁autumn	-13.6579
▁boutique	-13.6579
▁criminal	-13.6579
▁cumbersome	-13.6579
▁endeavor	-13.6579
▁facilities	-13.6579
▁identical	-13.6579
▁nissan	-13.6579
▁nonsense	-13.6579
▁possibilities	-13.6579
▁relief	-13.6579
▁transparent	-13.6579
▁windsor	-13.6579
▁civil	-13.6579
▁dino	-13.6579
▁simplify	-13.6579
▁unsuccessful	-13.6579
▁cliff	-13.6579
▁darlene	-13.6579
▁boise	-13.6579
▁$45	-13.6579
▁chanel	-13.6579
▁copies	-13.6579
▁implementation	-13.6579
▁misspelled	-13.6579
▁bdr	-13.6579
▁occasionally	-13.658
▁purging	-13.658
▁encrypted	-13.658
▁crashes	-13.658
▁suitable	-13.658
▁fried	-13.658
▁horse	-13.658
▁landry	-13.658
▁rally	-13.658
▁1:30	-13.6581
▁raymond	-13.6581
▁reuse	-13.6581
▁bath	-13.6581
▁tackle	-13.6581
▁commute	-13.6581
▁developed	-13.6582
▁louder	-13.6582
▁blend	-13.6583
▁churches	-13.6583
▁leaning	-13.6583
12	-13.6586
▁rented	-13.6586
▁impacting	-13.6587
▁carrying	-13.6588
▁csat	-13.6588
▁wally	-13.659
▁alter	-13.6591
over	-13.6592
▁gifts	-13.6593
▁infinity	-13.6597
▁migration	-13.6597
▁patriot	-13.6597
ke	-13.6599
▁stripe	-13.6602
▁nest	-13.6602
▁secrets	-13.6607
▁hip	-13.6617
▁meta	-13.6625
▁mississippi	-13.6627
▁buck	-13.6629
dal	-13.6653
▁divisions	-13.6667
▁$10,	-13.6673
▁ringer	-13.6698
▁origin	-13.6704
▁questioning	-13.6707
▁sin	-13.6709
▁quotes	-13.6719
▁mart	-13.6719
▁gus	-13.6737
he	-13.6739
▁investors	-13.6745
▁shower	-13.6749
▁su	-13.676
▁hyundai	-13.6777
▁coat	-13.6778
▁lender	-13.678
▁headache	-13.6783
▁rooster	-13.6784
▁header	-13.6791
▁challenges	-13.6797
▁wheel	-13.6799
▁br	-13.6827
▁accountant	-13.6828
▁contents	-13.6828
▁apa	-13.6837
▁sho	-13.6841
▁meals	-13.6851
lon	-13.6855
have	-13.6863
▁attorneys	-13.6872
▁tutorials	-13.6882
▁founder	-13.6884
▁cor	-13.6913
▁buys	-13.6929
▁bac	-13.6931
▁levi	-13.694
:15	-13.6948
▁reactivat	-13.696
▁disrupt	-13.6962
▁disappoint	-13.6962
▁suffer	-13.6963
▁interpret	-13.6963
▁mentor	-13.6963
▁mutual	-13.6964
▁resell	-13.6964
▁dentist	-13.6964
clined	-13.6964
▁accessibility	-13.6964
▁cassady	-13.6964
▁corisa	-13.6964
▁crespo	-13.6964
▁demick	-13.6964
▁desert	-13.6964
▁explanatory	-13.6964
▁figuration	-13.6964
▁flexibility	-13.6964
▁lenovo	-13.6964
▁marvin	-13.6964
▁preparing	-13.6964
▁salmon	-13.6964
▁samuel	-13.6964
▁siena	-13.6964
▁simplicity	-13.6964
▁skipped	-13.6964
▁sunshine	-13.6964
▁telstra	-13.6964
▁apex	-13.6964
▁crease	-13.6964
▁komar	-13.6964
▁utley	-13.6964
▁caliber	-13.6964
▁salary	-13.6964
▁enrollment	-13.6964
▁heartland	-13.6964
▁wiring	-13.6964
▁kane	-13.6964
▁responsibility	-13.6964
▁ramos	-13.6964
▁approximately	-13.6964
▁pizza	-13.6964
▁progressive	-13.6964
▁00	-13.6964
▁destiny	-13.6964
▁exclusively	-13.6965
▁fcc	-13.6965
▁controller	-13.6966
▁recovered	-13.6966
▁mock	-13.6966
▁opted	-13.6968
▁containing	-13.6968
▁hospitals	-13.6969
▁tack	-13.6971
▁conflicting	-13.6972
▁decrease	-13.6973
▁calculated	-13.6973
▁bass	-13.6975
▁salesman	-13.6975
▁auction	-13.6978
▁hyper	-13.6979
▁seeking	-13.6984
▁banking	-13.6985
▁officers	-13.6985
▁clued	-13.6994
▁announced	-13.6996
▁formation	-13.6998
▁drawn	-13.7004
▁transactions	-13.7007
▁collins	-13.7009
▁sections	-13.7015
und	-13.7017
▁trim	-13.7033
▁sha	-13.7034
▁operated	-13.7034
▁onica	-13.7045
▁productive	-13.7054
▁cham	-13.7064
▁thrown	-13.7068
▁holes	-13.7072
▁ramp	-13.709
tion	-13.7092
▁bam	-13.7101
▁experiences	-13.7122
▁las	-13.7131
lic	-13.7154
▁seniors	-13.7156
▁cheer	-13.7164
gi	-13.7166
▁suites	-13.7173
▁dump	-13.718
▁nurse	-13.7185
▁component	-13.7188
▁investor	-13.7188
▁chip	-13.7202
lia	-13.721
▁syncs	-13.7257
▁insider	-13.7271
tra	-13.7283
▁du	-13.7299
▁games	-13.7305
▁mal	-13.733
ul	-13.7347
▁evolve	-13.7357
▁incorporate	-13.7357
▁albert	-13.7359
▁trish	-13.7361
▁manufacture	-13.7362
▁gerard	-13.7362
▁scout	-13.7363
▁dismiss	-13.7363
▁concurrent	-13.7364
▁author	-13.7364
▁recap	-13.7364
▁liquid	-13.7364
▁alabama	-13.7364
▁bernard	-13.7364
▁circular	-13.7364
▁elijah	-13.7364
▁embark	-13.7364
▁embedded	-13.7364
▁fievel	-13.7364
▁furniture	-13.7364
▁generator	-13.7364
▁griffin	-13.7364
▁kendrick	-13.7364
▁natalia	-13.7364
▁numeric	-13.7364
▁obligation	-13.7364
▁paging	-13.7364
▁simulate	-13.7364
▁embed	-13.7364
▁rita	-13.7364
▁birthday	-13.7364
▁disruptive	-13.7364
▁tentative	-13.7364
▁mickey	-13.7364
▁marlin	-13.7364
▁mommy	-13.7364
▁nashville	-13.7364
▁padlock	-13.7364
▁participating	-13.7364
▁janine	-13.7364
▁northwest	-13.7364
▁readded	-13.7364
▁sequel	-13.7364
▁devon	-13.7364
▁rocket	-13.7364
▁75	-13.7364
▁seamlessly	-13.7364
▁milton	-13.7365
▁nearby	-13.7365
▁wrecked	-13.7365
▁grass	-13.7365
▁teaser	-13.7365
▁assay	-13.7365
▁burke	-13.7365
▁prefixes	-13.7365
▁ev	-13.7366
▁ringtone	-13.7366
▁onsite	-13.7366
▁runner	-13.7366
▁sixteenth	-13.7367
▁faded	-13.7367
▁midst	-13.7369
▁horizontal	-13.7369
▁specs	-13.7371
▁viable	-13.7372
ncurring	-13.7374
▁reiterate	-13.7375
▁placement	-13.7375
▁regina	-13.7376
▁swell	-13.7381
lan	-13.7392
▁outta	-13.7392
▁shorten	-13.7396
▁renamed	-13.7397
hold	-13.74
▁responder	-13.7401
▁zeroes	-13.7409
ang	-13.7417
▁fewer	-13.7419
▁imac	-13.743
▁habits	-13.7437
ship	-13.7439
▁moon	-13.744
▁suck	-13.7441
▁signals	-13.7442
ide	-13.7447
▁respective	-13.7449
▁lugging	-13.7449
▁fa	-13.7465
▁ju	-13.7471
well	-13.7478
▁val	-13.7481
▁wa	-13.7492
table	-13.7507
▁measures	-13.7514
▁invitee	-13.7515
▁sum	-13.7542
▁cali	-13.7575
net	-13.7593
▁dispatchers	-13.7596
▁citizen	-13.7596
▁duck	-13.7602
▁trainee	-13.7604
▁element	-13.7606
▁technicians	-13.7619
▁pane	-13.7621
▁gun	-13.7622
▁tires	-13.7623
ak	-13.764
ight	-13.7643
ding	-13.7668
▁woods	-13.7683
▁vita	-13.7685
▁professionals	-13.7694
▁rio	-13.7699
▁han	-13.7713
▁tricks	-13.772
▁mila	-13.7765
▁maps	-13.7765
tempted	-13.7768
ash	-13.7768
▁rama	-13.7772
▁educate	-13.7775
▁proactive	-13.778
▁ultimate	-13.778
▁certification	-13.7781
▁colleen	-13.7781
▁conrad	-13.7781
▁cousin	-13.7781
▁dexter	-13.7781
▁disaster	-13.7781
▁downstairs	-13.7781
▁escape	-13.7781
▁exploring	-13.7781
▁fernandez	-13.7781
▁innovation	-13.7781
▁kathreen	-13.7781
▁pasco	-13.7781
▁prairie	-13.7781
▁quantity	-13.7781
▁redundant	-13.7781
▁scheme	-13.7781
▁sienna	-13.7781
▁threshold	-13.7781
▁typo	-13.7781
▁venezuela	-13.7781
▁wilbur	-13.7781
▁competition	-13.7781
▁grease	-13.7781
▁medicine	-13.7781
▁voting	-13.7781
▁bridgetown	-13.7781
▁unbelievable	-13.7781
▁harper	-13.7781
▁maids	-13.7781
▁rephrase	-13.7781
▁congested	-13.7781
▁roaming	-13.7781
▁steal	-13.7781
▁jazz	-13.7781
▁derrick	-13.7781
▁appearance	-13.7781
▁sweetie	-13.7781
▁homework	-13.7781
▁massage	-13.7781
▁formula	-13.7782
▁flashes	-13.7782
▁nasa	-13.7782
▁lamb	-13.7782
▁stalling	-13.7783
▁carson	-13.7783
▁alfredo	-13.7783
▁cons	-13.7783
▁offset	-13.7783
▁summarize	-13.7783
▁drey	-13.7783
▁palo	-13.7784
▁lifting	-13.7784
▁manning	-13.7784
▁macos	-13.7784
▁homeless	-13.7784
▁porch	-13.7785
▁dialog	-13.7785
▁csi	-13.7785
▁pushes	-13.7785
▁melinda	-13.7785
▁retired	-13.7785
▁gala	-13.7785
▁oldest	-13.7786
▁comms	-13.7788
▁techie	-13.7789
▁quickest	-13.779
▁dies	-13.7792
▁silva	-13.7795
▁fc	-13.7795
fy	-13.7796
▁introduced	-13.7798
▁rear	-13.7799
▁kw	-13.78
▁assignments	-13.7806
▁reversed	-13.7806
▁simplest	-13.7813
back	-13.7818
ium	-13.7822
▁webhooks	-13.7822
▁tri	-13.7824
▁repeated	-13.7824
▁brendan	-13.7828
▁quinn	-13.7834
▁mobi	-13.7836
▁cycling	-13.7837
▁rentals	-13.7843
▁gen	-13.7844
▁daytime	-13.7852
▁donny	-13.7853
▁eagle	-13.7866
▁buzz	-13.7868
▁ada	-13.7869
▁jesse	-13.7883
▁crop	-13.7883
▁harm	-13.7884
field	-13.7893
▁flavors	-13.7899
▁regions	-13.7901
▁searched	-13.7902
▁gu	-13.7904
▁rex	-13.7916
▁chi	-13.7918
▁breaks	-13.7934
▁glue	-13.7962
▁occurs	-13.7981
kin	-13.7986
▁mu	-13.8013
na	-13.8014
▁efforts	-13.8016
▁translate	-13.8022
▁workspace	-13.8029
▁adult	-13.8031
▁hooks	-13.8038
▁tear	-13.804
▁costumer	-13.8041
▁baron	-13.8046
▁bottles	-13.8061
▁continued	-13.8062
op	-13.8062
▁react	-13.8074
▁handsets	-13.8083
ized	-13.8086
▁leaders	-13.8104
▁bins	-13.8112
ney	-13.8122
▁sb	-13.8122
▁guides	-13.8128
ened	-13.8167
▁basics	-13.8169
▁fr	-13.8178
▁printers	-13.8179
▁configurations	-13.8187
▁democrat	-13.8205
▁rolls	-13.8207
▁allocate	-13.8208
▁designate	-13.8209
ities	-13.8214
▁peach	-13.8214
▁employ	-13.8214
▁bench	-13.8215
▁bright	-13.8215
▁emmanuel	-13.8215
▁mabel	-13.8215
▁abraham	-13.8215
▁acknowledge	-13.8215
▁bennett	-13.8215
▁debris	-13.8215
▁declining	-13.8215
▁disagree	-13.8215
▁escobar	-13.8215
▁essence	-13.8215
▁galaxy	-13.8215
▁inconsistent	-13.8215
▁indoor	-13.8215
▁julio	-13.8215
▁manuel	-13.8215
▁mediafly	-13.8215
▁regulator	-13.8215
▁stood	-13.8215
▁unacceptable	-13.8215
▁marketplace	-13.8215
▁matrix	-13.8215
▁unclear	-13.8215
▁theoretically	-13.8215
▁continually	-13.8215
▁pride	-13.8215
▁struck	-13.8215
▁samir	-13.8216
▁scanning	-13.8216
▁flagged	-13.8216
▁staticky	-13.8216
▁aidid	-13.8216
▁embarrassing	-13.8216
▁engagement	-13.8216
▁western	-13.8216
▁impressed	-13.8216
▁certified	-13.8216
▁hopper	-13.8216
▁richie	-13.8216
▁defender	-13.8216
▁partially	-13.8216
▁mentally	-13.8216
▁$24	-13.8216
▁disappointed	-13.8216
▁jar	-13.8216
▁hellofax	-13.8217
▁intermittently	-13.8217
▁naming	-13.8217
▁originated	-13.8217
▁champ	-13.8217
▁$22	-13.8217
▁disappointing	-13.8217
▁seventeenth	-13.8218
▁mistakenly	-13.8218
▁shout	-13.8218
▁rently	-13.8218
▁outsource	-13.8219
▁initiative	-13.8219
▁backlog	-13.822
▁catering	-13.822
▁emerge	-13.822
▁curve	-13.8221
un	-13.8221
▁judge	-13.8221
▁crossed	-13.8222
▁lang	-13.8223
▁greet	-13.8223
▁rene	-13.8227
▁betting	-13.8231
▁processor	-13.8231
morial	-13.8233
▁quicktime	-13.8234
▁accuracy	-13.8236
▁magazine	-13.8236
▁visiting	-13.8238
▁wework	-13.8241
▁dayton	-13.8245
▁ira	-13.8245
▁dodge	-13.8246
▁registers	-13.8252
▁credited	-13.8253
▁tar	-13.8255
icious	-13.8256
▁panic	-13.8257
▁receptionists	-13.8263
▁markets	-13.8265
▁defend	-13.8269
▁political	-13.8271
ial	-13.8275
der	-13.8277
▁arena	-13.83
▁underline	-13.8311
▁sixth	-13.8335
▁arts	-13.8337
▁decor	-13.8341
▁elias	-13.8355
ap	-13.8356
▁andrei	-13.837
▁costumers	-13.8395
▁shin	-13.8407
▁occasions	-13.8409
▁components	-13.8411
▁materials	-13.8435
▁consist	-13.8448
ole	-13.8466
▁allies	-13.847
▁muscle	-13.8484
▁ti	-13.8484
▁courts	-13.8489
▁flower	-13.849
▁locating	-13.8495
▁contractors	-13.8497
▁arrangement	-13.8501
▁tick	-13.851
▁shade	-13.8515
▁interviews	-13.8538
▁cv	-13.8548
va	-13.8572
and	-13.8591
▁allie	-13.8594
▁vital	-13.8595
▁fro	-13.861
ica	-13.8612
▁demon	-13.8622
ette	-13.8623
▁hotels	-13.8627
▁enrolle	-13.8637
▁brothers	-13.8638
dd	-13.8642
▁smells	-13.8643
▁cop	-13.8644
▁executives	-13.8651
▁flex	-13.8667
▁dirt	-13.8669
▁borrow	-13.8669
▁alphanumeric	-13.867
▁appraisal	-13.867
▁beauty	-13.867
▁breeze	-13.867
▁census	-13.867
▁ception	-13.867
▁dakota	-13.867
▁dermatology	-13.867
▁diligence	-13.867
▁egypt	-13.867
▁expiration	-13.867
▁fabulous	-13.867
▁furnace	-13.867
▁gourmet	-13.867
▁grandfather	-13.867
▁incentive	-13.867
▁interfering	-13.867
▁journal	-13.867
▁legitimate	-13.867
▁michele	-13.867
▁ministration	-13.867
▁puerto	-13.867
▁rerouting	-13.867
▁rescue	-13.867
▁simpson	-13.867
▁statistics	-13.867
▁strater	-13.867
▁supplement	-13.867
▁territory	-13.867
▁trillion	-13.867
▁wanda	-13.867
▁guiding	-13.867
▁medicaid	-13.867
▁oxford	-13.867
▁rubber	-13.867
▁suspicious	-13.867
▁swapped	-13.867
miscommunication	-13.867
▁alvin	-13.867
▁disease	-13.867
▁honda	-13.867
▁hypothetically	-13.867
▁lobby	-13.867
▁distracted	-13.867
▁classroom	-13.867
▁limberg	-13.867
▁sql	-13.867
▁rosary	-13.867
▁bingo	-13.867
▁assessor	-13.867
▁preferably	-13.867
▁avon	-13.867
▁cradle	-13.867
▁xbox	-13.867
▁european	-13.867
▁rory	-13.8671
▁sincerely	-13.8671
▁dropbox	-13.8671
▁shocked	-13.8671
▁discovery	-13.8671
▁cake	-13.8671
▁glitches	-13.8671
▁voiceai	-13.8671
▁killer	-13.8671
▁enduser	-13.8671
▁glasses	-13.8671
▁assessed	-13.8672
▁shame	-13.8672
ero	-13.8673
▁mindful	-13.8673
▁breed	-13.8673
▁clio	-13.8673
▁gallon	-13.8674
▁slick	-13.8674
▁intimate	-13.8674
▁eighteenth	-13.8675
▁largest	-13.8677
▁significant	-13.8677
▁reopened	-13.868
▁bored	-13.868
▁mca	-13.8682
▁bending	-13.8686
▁fry	-13.869
▁ramon	-13.869
▁constitution	-13.8692
▁grocery	-13.8692
▁refreshes	-13.8693
▁historical	-13.8698
▁bx	-13.8698
▁inches	-13.8701
▁marker	-13.8706
▁languages	-13.8706
▁rider	-13.8714
▁pstn	-13.872
▁rung	-13.8721
key	-13.8723
▁gy	-13.8729
▁stocks	-13.8736
▁mayor	-13.8743
wing	-13.8748
ela	-13.8749
▁bot	-13.8754
▁reservations	-13.8756
▁symbols	-13.8768
▁spy	-13.877
▁disturbing	-13.8776
▁cre	-13.8792
▁manish	-13.8794
▁depth	-13.8799
▁lamp	-13.8817
▁amend	-13.8819
▁remembering	-13.8836
wood	-13.8853
▁directors	-13.8854
▁databases	-13.8861
yahoo	-13.8868
distance	-13.8869
conferencing	-13.8874
▁peru	-13.8879
her	-13.8898
▁35	-13.8926
ue	-13.8929
▁springs	-13.8938
▁gar	-13.8956
▁bon	-13.8958
▁measure	-13.8963
ving	-13.8964
▁province	-13.8965
▁scare	-13.8967
mont	-13.898
ier	-13.8999
nell	-13.9011
▁cy	-13.9015
new	-13.9039
▁rey	-13.9061
▁lump	-13.9064
▁sea	-13.9066
▁farmer	-13.9073
easing	-13.9085
▁incomplete	-13.9086
col	-13.9111
▁labs	-13.9118
let	-13.9119
▁revise	-13.9139
▁complicate	-13.914
▁carmel	-13.9143
▁shadow	-13.9145
▁verbal	-13.9146
▁fortunate	-13.9146
▁apparent	-13.9146
▁franco	-13.9146
▁scape	-13.9146
▁abroad	-13.9146
▁beneath	-13.9146
▁caution	-13.9146
▁chevron	-13.9146
▁chevy	-13.9146
▁dubai	-13.9146
▁equivalent	-13.9146
▁flipped	-13.9146
▁girlfriend	-13.9146
▁identification	-13.9146
▁league	-13.9146
▁lizabeth	-13.9146
▁mildred	-13.9146
▁missoula	-13.9146
▁nutrition	-13.9146
▁optimum	-13.9146
▁paragraph	-13.9146
▁phoning	-13.9146
▁premise	-13.9146
▁raising	-13.9146
▁rebroadcast	-13.9146
▁rehab	-13.9146
▁reverend	-13.9146
▁sabrina	-13.9146
▁sprocket	-13.9146
▁technique	-13.9146
▁tenuous	-13.9146
▁tweet	-13.9146
▁twitter	-13.9146
▁burton	-13.9146
▁glory	-13.9146
▁hobby	-13.9146
▁mckayla	-13.9146
▁olga	-13.9146
▁dixon	-13.9146
▁gerber	-13.9146
▁socket	-13.9146
▁merica	-13.9146
▁noisy	-13.9146
▁unified	-13.9146
▁rodney	-13.9146
▁mardi	-13.9146
▁workstation	-13.9146
▁azx	-13.9146
▁disruption	-13.9146
▁interactive	-13.9146
▁deanna	-13.9146
▁ditch	-13.9146
▁alexandra	-13.9146
▁drone	-13.9146
▁kisha	-13.9147
▁anthem	-13.9147
▁exhausted	-13.9147
▁colin	-13.9147
▁$29	-13.9147
▁boil	-13.9147
▁$59	-13.9147
▁coby	-13.9147
▁clinical	-13.9147
▁medication	-13.9147
▁appropriately	-13.9147
▁switchboard	-13.9147
▁effectively	-13.9147
▁stalled	-13.9148
▁doris	-13.9148
▁allocation	-13.9148
▁splain	-13.9148
▁rotate	-13.9149
▁attended	-13.915
▁retained	-13.915
▁fresher	-13.9151
▁sector	-13.9151
▁gig	-13.9153
▁vast	-13.9153
▁shy	-13.9153
▁mat	-13.9155
▁excluded	-13.9156
▁behaving	-13.9156
▁trader	-13.9156
▁renting	-13.916
▁importantly	-13.916
▁reassigning	-13.9161
▁rossa	-13.9161
▁dems	-13.9163
▁fifteenth	-13.9163
▁planner	-13.9163
▁decid	-13.9165
▁angle	-13.9165
ure	-13.9168
▁franchise	-13.9169
▁disciplined	-13.9182
▁travelers	-13.9186
▁newman	-13.9203
▁climate	-13.9204
▁russian	-13.9204
▁closely	-13.9205
▁roberto	-13.9207
▁vc	-13.921
▁gong	-13.9215
og	-13.9225
▁leon	-13.9227
▁begins	-13.9252
ana	-13.9253
▁santos	-13.9264
▁trips	-13.9288
▁amit	-13.9303
▁statements	-13.9333
19	-13.9333
▁fle	-13.9358
▁rios	-13.9361
▁penn	-13.9363
wanted	-13.9396
cy	-13.9418
▁positions	-13.9419
▁nickels	-13.9442
▁estimates	-13.9449
workers	-13.9453
▁sal	-13.9455
▁shipment	-13.946
:50	-13.9462
▁chime	-13.9464
▁hiccup	-13.9472
lee	-13.9473
▁actor	-13.9474
state	-13.9497
▁reg	-13.9497
▁gr	-13.9517
▁findings	-13.9519
ett	-13.9526
con	-13.9527
▁pe	-13.9538
▁norm	-13.9551
▁sundays	-13.9562
▁$50,	-13.957
▁reasoning	-13.9573
▁compete	-13.9597
▁flu	-13.9602
▁si	-13.9604
ipping	-13.9619
▁compute	-13.9637
▁timely	-13.9637
▁debate	-13.9641
ical	-13.9641
▁verse	-13.9642
▁grove	-13.9644
▁wreck	-13.9644
▁pour	-13.9645
▁desire	-13.9645
▁destroy	-13.9645
▁relative	-13.9646
▁aileen	-13.9646
▁appexchange	-13.9646
▁bakley	-13.9646
▁cautious	-13.9646
▁dilemma	-13.9646
▁drastic	-13.9646
▁eisen	-13.9646
▁hampshire	-13.9646
▁hansen	-13.9646
▁heavily	-13.9646
▁hierarchy	-13.9646
▁improving	-13.9646
▁joveth	-13.9646
▁marriage	-13.9646
▁mccarty	-13.9646
▁migrating	-13.9646
▁mohammed	-13.9646
▁rosemary	-13.9646
▁routine	-13.9646
▁satellite	-13.9646
▁satisfaction	-13.9646
▁sauce	-13.9646
▁topturf	-13.9646
▁traction	-13.9646
▁barging	-13.9646
▁expansion	-13.9646
▁quotation	-13.9646
▁singular	-13.9646
▁wrench	-13.9646
▁fellow	-13.9646
▁karissa	-13.9646
▁rodriguez	-13.9646
▁tourney	-13.9646
▁eliza	-13.9646
▁combo	-13.9646
▁fool	-13.9646
▁rader	-13.9646
▁frequency	-13.9646
▁cooperation	-13.9646
▁elissa	-13.9646
▁bugging	-13.9646
▁inspection	-13.9646
▁regis	-13.9646
▁strategies	-13.9646
▁dvx	-13.9646
▁bondage	-13.9646
▁utc	-13.9646
▁scanner	-13.9646
▁02	-13.9646
▁affordable	-13.9647
▁mattress	-13.9647
▁paley	-13.9647
▁limbo	-13.9647
▁intent	-13.9647
▁deskphone	-13.9647
▁formatted	-13.9647
▁lever	-13.9647
▁chrissy	-13.9647
▁heater	-13.9647
▁hacked	-13.9648
▁$23	-13.9648
▁passion	-13.9649
▁$13	-13.9649
▁coughing	-13.9649
▁cme	-13.9649
▁sewing	-13.965
▁thirteenth	-13.965
▁kerry	-13.9653
▁mona	-13.9653
▁knocking	-13.9653
▁ivan	-13.9654
▁devin	-13.9654
▁mastery	-13.9654
▁beans	-13.9655
▁vein	-13.9658
▁promptly	-13.9661
▁cleaned	-13.9661
▁fw	-13.9665
▁granting	-13.9665
▁segregate	-13.9666
▁sports	-13.9669
▁madeline	-13.9669
▁flagging	-13.967
▁eighties	-13.9671
sky	-13.9673
▁shock	-13.9675
▁drove	-13.9675
▁louisa	-13.9676
▁reachable	-13.9682
▁aqua	-13.9682
▁eng	-13.9685
▁edwards	-13.9687
▁reduced	-13.9687
▁freeman	-13.9692
▁pricey	-13.9699
▁staring	-13.9701
▁increments	-13.9706
▁bearable	-13.9718
▁expenses	-13.9724
▁veterans	-13.9724
▁dia	-13.9729
▁circumstances	-13.9743
▁refunding	-13.9746
▁prep	-13.9783
▁suited	-13.9784
▁rub	-13.9811
▁esp	-13.9813
▁visors	-13.9817
▁arc	-13.9817
▁calendars	-13.9826
▁77	-13.9842
▁queued	-13.9844
▁holders	-13.9852
▁tx	-13.9864
▁trainees	-13.9864
cle	-13.9866
▁adams	-13.9866
▁homey	-13.9866
▁balls	-13.9878
rick	-13.9883
ge	-13.9893
▁tru	-13.9906
victory	-13.9946
group	-13.9948
▁colors	-13.9948
emma	-13.995
screen	-13.9952
▁eu	-13.9955
▁aspects	-13.9958
▁fab	-13.996
ease	-13.9963
▁pixel	-13.9988
nie	-13.9991
▁entail	-13.9993
▁homeowner	-13.9995
▁visor	-13.9996
▁height	-14
▁lin	-14.001
▁deb	-14.0011
▁ala	-14.0051
▁che	-14.0057
▁incidents	-14.0071
han	-14.0118
▁banners	-14.0137
▁je	-14.0159
▁dar	-14.016
▁reimburse	-14.0165
▁distribute	-14.0166
▁resolv	-14.0169
▁recruit	-14.017
▁avant	-14.017
▁poke	-14.0171
▁unload	-14.0172
▁surprising	-14.0172
▁extreme	-14.0172
▁practical	-14.0172
▁strategi	-14.0172
▁amalfi	-14.0173
▁avaya	-14.0173
▁breezy	-14.0173
▁cajun	-14.0173
▁calgary	-14.0173
▁competitive	-14.0173
▁compliment	-14.0173
▁duncan	-14.0173
▁entrance	-14.0173
▁envision	-14.0173
▁envoy	-14.0173
▁eugene	-14.0173
▁fission	-14.0173
▁industrial	-14.0173
▁intelligent	-14.0173
▁kenya	-14.0173
▁krystal	-14.0173
▁lacey	-14.0173
▁lebanon	-14.0173
▁mckesson	-14.0173
▁paralegal	-14.0173
▁participation	-14.0173
▁remedy	-14.0173
▁scaling	-14.0173
▁situated	-14.0173
▁storing	-14.0173
▁superior	-14.0173
▁suzanne	-14.0173
▁tandem	-14.0173
▁telco	-14.0173
▁tractor	-14.0173
▁famous	-14.0173
▁indefinitely	-14.0173
▁karina	-14.0173
▁reese	-14.0173
▁rotation	-14.0173
▁titus	-14.0173
▁trading	-14.0173
▁knable	-14.0173
▁mouthpiece	-14.0173
▁darling	-14.0173
▁authority	-14.0173
▁overlapping	-14.0173
▁tendenc	-14.0173
▁ember	-14.0173
▁funky	-14.0173
▁broadway	-14.0173
▁preschool	-14.0173
▁treatment	-14.0173
▁hatcher	-14.0173
▁passport	-14.0173
▁nigeria	-14.0173
▁thoroughly	-14.0173
▁verbally	-14.0173
▁screaming	-14.0173
▁desking	-14.0173
▁biz	-14.0173
▁greedy	-14.0173
▁44	-14.0173
▁divine	-14.0173
▁awfully	-14.0173
▁daniella	-14.0173
▁employed	-14.0173
▁adopter	-14.0174
▁magical	-14.0174
▁preaching	-14.0174
▁lining	-14.0174
▁stressed	-14.0175
▁heaven	-14.0175
▁bsi	-14.0175
▁irena	-14.0176
▁firmer	-14.0176
▁complained	-14.0176
▁tach	-14.0176
▁alberta	-14.0176
▁railing	-14.0176
▁costco	-14.0177
▁hurting	-14.0178
▁wishes	-14.018
▁commended	-14.018
▁farming	-14.018
▁amongst	-14.018
▁allocated	-14.0181
▁keen	-14.0181
▁claiming	-14.0182
▁corded	-14.0182
▁reprovisioning	-14.0185
▁watched	-14.0185
▁unity	-14.0185
▁bow	-14.0188
▁externally	-14.0191
▁straighter	-14.0193
▁tracker	-14.0194
▁toggling	-14.0194
▁homebuyers	-14.0197
▁performed	-14.0202
anned	-14.022
▁abel	-14.0226
▁ranger	-14.0237
▁vantage	-14.0241
▁butter	-14.0249
pi	-14.0257
▁def	-14.0262
ig	-14.0272
era	-14.0278
▁protected	-14.0289
▁nat	-14.0299
▁modifications	-14.0304
mer	-14.0311
▁helen	-14.032
▁chick	-14.0331
tus	-14.0334
▁pager	-14.034
▁hurts	-14.0343
ces	-14.0349
▁homeowners	-14.0353
▁edi	-14.036
ug	-14.0363
▁wraps	-14.0371
ci	-14.0382
▁arch	-14.0384
▁smartphones	-14.0389
board	-14.0434
▁ec	-14.0447
▁loo	-14.0449
▁residents	-14.0452
25	-14.0461
▁vend	-14.0462
app	-14.0465
▁72	-14.047
rus	-14.0482
▁justine	-14.0487
▁expo	-14.0509
▁unite	-14.0519
▁mor	-14.054
duty	-14.054
▁applicant	-14.0542
▁evaluation	-14.0542
▁crack	-14.0543
▁exec	-14.0548
▁cage	-14.0551
▁await	-14.0555
▁streams	-14.056
▁elia	-14.0565
▁reader	-14.0571
ator	-14.0586
▁cbs	-14.0592
▁snip	-14.0608
▁medic	-14.0612
▁parks	-14.0617
que	-14.0622
di	-14.0644
tech	-14.0654
▁sanders	-14.066
ok	-14.0662
▁marin	-14.0667
▁ni	-14.0684
ating	-14.0687
▁uv	-14.0687
▁saturdays	-14.0689
▁beg	-14.0719
▁prints	-14.0721
bert	-14.0722
▁terribl	-14.0725
▁sneak	-14.0725
▁archer	-14.0727
▁rector	-14.0728
▁desperate	-14.0728
▁quaint	-14.0728
▁tremendous	-14.0728
▁profession	-14.0728
▁haiti	-14.0728
▁isabel	-14.0728
▁knight	-14.0728
▁affiliation	-14.0728
▁algorithm	-14.0728
▁arnold	-14.0728
▁bottleneck	-14.0728
▁catholic	-14.0728
▁citrix	-14.0728
▁clarified	-14.0728
▁comprehensive	-14.0728
▁earbuds	-14.0728
▁gracious	-14.0728
▁hurricane	-14.0728
▁independence	-14.0728
▁innovative	-14.0728
▁japanese	-14.0728
▁javascript	-14.0728
▁kendall	-14.0728
▁miriam	-14.0728
▁misinformation	-14.0728
▁opportunities	-14.0728
▁patrice	-14.0728
▁pearson	-14.0728
▁prescription	-14.0728
▁promising	-14.0728
▁reggie	-14.0728
▁retype	-14.0728
▁simmons	-14.0728
▁straw	-14.0728
▁stuart	-14.0728
▁suffix	-14.0728
▁tennyson	-14.0728
▁tomlinson	-14.0728
▁transmission	-14.0728
▁birch	-14.0728
▁tinker	-14.0728
▁ahmed	-14.0728
▁damien	-14.0728
▁defective	-14.0728
▁harbin	-14.0728
▁hesitant	-14.0728
▁omaha	-14.0728
▁pleasant	-14.0728
▁functionalities	-14.0728
▁healing	-14.0728
▁malta	-14.0728
▁parade	-14.0728
▁robust	-14.0728
▁preservation	-14.0728
▁savior	-14.0728
▁lagging	-14.0728
▁pearlie	-14.0728
▁stressful	-14.0728
▁zachary	-14.0728
▁disappearance	-14.0728
▁rackley	-14.0728
▁resent	-14.0728
▁cluster	-14.0728
▁floral	-14.0728
▁charity	-14.0728
▁hallway	-14.0728
▁upsetting	-14.0728
▁romanov	-14.0728
▁chester	-14.0728
▁carlene	-14.0728
▁mccall	-14.0728
▁sprinkler	-14.0728
▁dining	-14.0728
▁crucial	-14.0729
▁hugh	-14.0729
▁skyline	-14.0729
▁tempting	-14.0729
▁directories	-14.0729
▁whack	-14.0729
▁powerful	-14.0729
▁$55	-14.0729
▁sadly	-14.0729
▁venue	-14.0729
▁fullback	-14.0729
▁workplace	-14.0729
▁atlas	-14.0729
▁aircall	-14.073
▁undermined	-14.073
▁jude	-14.073
▁grayson	-14.073
▁deployed	-14.073
▁nato	-14.0731
▁rundown	-14.0731
▁smarter	-14.0732
▁lucia	-14.0732
▁windy	-14.0733
▁charleston	-14.0733
▁daycare	-14.0733
▁zen	-14.0733
▁suppress	-14.0734
▁attending	-14.0734
▁fighting	-14.0734
▁impacted	-14.0735
▁stern	-14.0735
▁flooring	-14.0736
▁refundable	-14.0736
▁dba	-14.0736
▁nica	-14.0736
▁hap	-14.0737
▁leap	-14.0737
▁planned	-14.0738
▁cornell	-14.0739
▁lesser	-14.074
▁phi	-14.074
▁deed	-14.0741
▁extending	-14.0743
▁fortune	-14.0743
▁iii	-14.0746
▁relaying	-14.0747
▁adjusting	-14.0748
▁facilitate	-14.0755
▁sophie	-14.0755
▁chen	-14.0757
▁tender	-14.0763
▁studies	-14.0764
tgm	-14.0766
hose	-14.0769
▁shifting	-14.0775
▁pl	-14.0777
▁beating	-14.0779
▁noble	-14.0782
▁bang	-14.0791
▁dominica	-14.0811
▁vic	-14.0815
▁ru	-14.0819
▁bounces	-14.0824
cloud	-14.0831
sage	-14.0835
stone	-14.0839
▁liens	-14.0847
▁atlantic	-14.0848
▁appreciated	-14.0855
▁poc	-14.0859
▁tape	-14.0863
▁telemarketers	-14.0878
eros	-14.0909
▁alton	-14.0913
cher	-14.0914
tel	-14.0917
▁fin	-14.0924
▁african	-14.093
▁charts	-14.0938
▁tub	-14.0941
▁shins	-14.0955
ail	-14.096
▁camps	-14.0969
ico	-14.0976
▁messe	-14.0983
cha	-14.1008
ated	-14.1018
ung	-14.1034
▁motors	-14.1045
▁cla	-14.1046
led	-14.1051
▁masters	-14.1054
▁nails	-14.1066
▁represents	-14.1077
▁evaluate	-14.1091
▁horn	-14.1093
away	-14.111
▁tester	-14.1128
▁threat	-14.1132
▁overlay	-14.1132
▁argument	-14.1135
▁bracket	-14.1136
▁amounts	-14.1138
▁supplie	-14.114
▁airlines	-14.1141
▁weddings	-14.1141
cking	-14.1147
recurring	-14.1162
light	-14.1163
▁flows	-14.1174
▁districts	-14.1176
den	-14.1184
▁nando	-14.1192
▁organizations	-14.1195
▁ye	-14.1199
▁compress	-14.1204
▁cci	-14.1223
▁append	-14.1224
▁walters	-14.1226
:35	-14.1236
50	-14.1242
▁decisions	-14.1249
▁astra	-14.1285
▁distinct	-14.1286
▁pies	-14.1289
▁lion	-14.129
▁refi	-14.1293
▁googled	-14.1301
▁ste	-14.1305
▁horizon	-14.1309
▁streamline	-14.131
▁costume	-14.1314
▁jewel	-14.1315
▁unassign	-14.1316
▁adequate	-14.1316
▁thorough	-14.1316
▁rapid	-14.1316
▁definite	-14.1316
▁witness	-14.1316
▁absence	-14.1316
▁armstrong	-14.1316
▁burden	-14.1316
▁clerk	-14.1316
▁cortez	-14.1316
▁cricket	-14.1316
▁crime	-14.1316
▁deeley	-14.1316
▁distant	-14.1316
▁distributor	-14.1316
▁edmonton	-14.1316
▁elbow	-14.1316
▁etcetera	-14.1316
▁fraudulent	-14.1316
▁identifies	-14.1316
▁incredible	-14.1316
▁integrative	-14.1316
▁lorraine	-14.1316
▁marquez	-14.1316
▁mcdermottcosta	-14.1316
▁mchale	-14.1316
▁melody	-14.1316
▁momentarily	-14.1316
▁neighborhood	-14.1316
▁occurrence	-14.1316
▁outsourcing	-14.1316
▁proposal	-14.1316
▁recognition	-14.1316
▁sacramento	-14.1316
▁sergio	-14.1316
▁silicon	-14.1316
▁sophia	-14.1316
▁stories	-14.1316
▁strike	-14.1316
▁tunnel	-14.1316
▁unicorn	-14.1316
▁unregistered	-14.1316
▁antivirus	-14.1316
▁ariana	-14.1316
▁circus	-14.1316
▁erwin	-14.1316
▁mystical	-14.1316
▁raiders	-14.1316
▁remesh	-14.1316
▁threw	-14.1316
▁unresponsive	-14.1316
▁whale	-14.1316
▁chopping	-14.1316
▁devote	-14.1316
▁entertainment	-14.1316
▁blade	-14.1316
▁fluid	-14.1316
▁oracle	-14.1316
▁tania	-14.1316
▁attitude	-14.1316
▁goldberg	-14.1316
▁isaac	-14.1316
▁reactive	-14.1316
▁yumi	-14.1316
▁retreat	-14.1316
▁tread	-14.1316
▁woke	-14.1316
▁overwhelming	-14.1316
▁brainware	-14.1316
▁larson	-14.1316
▁mackenzie	-14.1316
▁constance	-14.1316
▁convey	-14.1316
▁towel	-14.1316
▁firing	-14.1316
▁housekeeping	-14.1316
▁jensen	-14.1316
▁kofi	-14.1316
▁delight	-14.1316
▁foster	-14.1316
▁periodically	-14.1316
▁apology	-14.1316
▁intentionally	-14.1317
▁leverage	-14.1317
▁scion	-14.1317
▁jamal	-14.1317
▁breakout	-14.1317
▁collar	-14.1317
▁fading	-14.1317
▁mediation	-14.1317
▁castro	-14.1317
▁pipeline	-14.1317
▁lumber	-14.1317
▁excess	-14.1317
▁benny	-14.1317
▁ghost	-14.1317
▁kato	-14.1317
▁$19	-14.1317
▁chow	-14.1317
▁prolong	-14.1317
▁optimal	-14.1317
▁proud	-14.1317
▁nexus	-14.1318
▁mature	-14.1318
▁ruin	-14.1318
▁hassan	-14.1318
▁lena	-14.1318
▁peddle	-14.1318
▁alphabetical	-14.1319
▁lcc	-14.1319
▁manufacturer	-14.132
▁newport	-14.132
▁investing	-14.132
▁bama	-14.1321
▁compromised	-14.1321
▁burning	-14.1321
▁steam	-14.1321
▁protecting	-14.1321
▁drinking	-14.1322
▁bowling	-14.1322
▁splash	-14.1322
▁expressed	-14.1322
▁capitalized	-14.1322
▁abuse	-14.1323
▁backtrack	-14.1323
▁appeal	-14.1324
▁tended	-14.1326
▁spani	-14.1327
▁merely	-14.1328
▁countering	-14.1328
▁existed	-14.1328
▁burns	-14.1329
▁mistakes	-14.1329
▁outlined	-14.133
▁endless	-14.1333
▁tale	-14.1333
▁memorized	-14.1335
▁tending	-14.1336
▁rivera	-14.1336
▁hovering	-14.1337
▁introduc	-14.1341
▁identifying	-14.1343
▁crunch	-14.1343
▁annie	-14.1346
▁beaker	-14.1352
berg	-14.1355
▁structured	-14.1356
▁pv	-14.1365
▁matty	-14.1366
▁lb	-14.1366
▁caring	-14.1366
▁repairs	-14.1369
ster	-14.137
▁pines	-14.1372
▁dx	-14.1372
▁fed	-14.1384
▁shawn	-14.1384
set	-14.1388
▁gan	-14.1395
▁shelf	-14.1397
▁delegate	-14.1401
▁relat	-14.1408
▁regulations	-14.1409
▁listings	-14.1413
▁cooler	-14.1425
▁amar	-14.1427
▁butler	-14.1444
▁bash	-14.1454
ow	-14.1462
▁proven	-14.149
bal	-14.1492
▁kent	-14.1506
sign	-14.1507
▁targets	-14.1512
▁ipads	-14.1517
▁picky	-14.1524
sen	-14.1527
14	-14.1531
ory	-14.1555
▁ducks	-14.1575
tory	-14.1584
▁sosa	-14.16
rna	-14.1625
atty	-14.1631
ain	-14.1643
ila	-14.1647
▁tasks	-14.1663
rio	-14.1696
▁medi	-14.1701
ral	-14.1702
▁vo	-14.1728
▁33	-14.176
▁flavor	-14.1765
▁hole	-14.1768
▁addressing	-14.1784
▁cords	-14.1789
▁attacks	-14.1789
▁sup	-14.1791
▁attachments	-14.1792
▁staten	-14.1811
▁bookmarks	-14.1812
store	-14.1823
▁faces	-14.1834
▁toby	-14.1841
gle	-14.1841
▁protocols	-14.1851
▁bp	-14.1861
▁cow	-14.1865
▁writers	-14.1881
▁kings	-14.1882
aking	-14.1882
▁experiments	-14.1884
▁daniels	-14.1885
lene	-14.191
par	-14.1914
▁retire	-14.193
▁disassociate	-14.1934
▁recor	-14.1936
▁gross	-14.1936
▁decode	-14.1939
▁reveal	-14.1939
▁clara	-14.194
▁whisper	-14.194
▁spill	-14.194
▁instantaneous	-14.1941
▁yea	-14.1941
▁quota	-14.1941
▁alexandria	-14.1941
▁amsterdam	-14.1941
▁annoyed	-14.1941
▁boulder	-14.1941
▁buffalo	-14.1941
▁bummer	-14.1941
▁cedar	-14.1941
▁corrina	-14.1941
▁customizable	-14.1941
▁discretion	-14.1941
▁ecuador	-14.1941
▁equipped	-14.1941
▁garbage	-14.1941
▁harbor	-14.1941
▁heartbeat	-14.1941
▁inclusive	-14.1941
▁keyrenter	-14.1941
▁landlord	-14.1941
▁ldap	-14.1941
▁marisol	-14.1941
▁marjorie	-14.1941
▁melendez	-14.1941
▁newburgh	-14.1941
▁nylas	-14.1941
▁popcorn	-14.1941
▁purse	-14.1941
▁qualities	-14.1941
▁rochelle	-14.1941
▁separating	-14.1941
▁snyder	-14.1941
▁subpoena	-14.1941
▁sullivan	-14.1941
▁telemarketing	-14.1941
▁texan	-14.1941
▁translation	-14.1941
▁trinity	-14.1941
▁uncertain	-14.1941
▁unusable	-14.1941
▁urban	-14.1941
▁waiving	-14.1941
▁walmart	-14.1941
▁xyz	-14.1941
▁chapter	-14.1941
▁dinovo	-14.1941
▁fanatically	-14.1941
▁glossary	-14.1941
▁greece	-14.1941
▁harness	-14.1941
▁karma	-14.1941
▁olsen	-14.1941
▁telehealth	-14.1941
▁casper	-14.1941
▁multimedia	-14.1941
▁cassie	-14.1941
▁disclaimer	-14.1941
▁eager	-14.1941
▁harley	-14.1941
▁scarlet	-14.1941
▁chapman	-14.1941
▁elected	-14.1941
▁emmy	-14.1941
▁goodnight	-14.1941
▁isabella	-14.1941
▁rectangle	-14.1941
▁benchley	-14.1941
▁football	-14.1941
▁racing	-14.1941
▁terrace	-14.1941
▁calculator	-14.1941
▁fredrick	-14.1941
▁archie	-14.1941
▁marble	-14.1941
▁ashville	-14.1941
▁chop	-14.1941
▁perkins	-14.1941
▁florence	-14.1941
▁cyan	-14.1941
▁exercise	-14.1941
▁latter	-14.1941
▁hopping	-14.1941
▁spotlight	-14.1941
▁arrowhead	-14.1941
▁incurred	-14.1942
▁hybrid	-14.1942
teleconferencing	-14.1942
▁coleen	-14.1942
▁goldman	-14.1942
▁readily	-14.1942
▁biness	-14.1942
▁brock	-14.1942
▁marry	-14.1942
▁barrier	-14.1942
▁skipping	-14.1942
▁barnes	-14.1942
▁lester	-14.1942
▁worldwide	-14.1942
▁household	-14.1942
▁55	-14.1942
▁forgetting	-14.1942
▁handyman	-14.1942
▁stance	-14.1942
▁revision	-14.1942
convene	-14.1942
▁basement	-14.1942
▁alternately	-14.1942
▁nessa	-14.1942
▁ticked	-14.1942
▁greeted	-14.1942
▁nadia	-14.1943
▁propose	-14.1943
▁sanity	-14.1943
▁promotional	-14.1943
▁unlikely	-14.1943
▁hopeful	-14.1943
▁canvas	-14.1944
▁flooded	-14.1944
▁armand	-14.1944
▁painted	-14.1944
▁warmer	-14.1944
▁reward	-14.1945
▁financially	-14.1946
51	-14.1946
▁killed	-14.1946
▁roofing	-14.1946
▁commonly	-14.1947
▁packed	-14.1947
▁potter	-14.1947
▁lotta	-14.1948
▁targeted	-14.1948
▁raven	-14.1948
▁lacking	-14.1949
▁bothered	-14.1949
▁freezer	-14.195
▁jj	-14.195
▁desired	-14.195
▁reverting	-14.1951
▁disappearing	-14.1951
▁retaining	-14.1952
▁transitioning	-14.1952
▁wirelessly	-14.1952
▁docker	-14.1953
▁preston	-14.1953
▁prevented	-14.1954
▁hoops	-14.1959
▁automat	-14.1961
fashioned	-14.1961
▁visited	-14.1962
▁reopening	-14.1964
▁plants	-14.1966
men	-14.1967
▁preach	-14.1967
▁defect	-14.1969
▁fx	-14.1971
▁communities	-14.1971
▁liberty	-14.1971
▁ethical	-14.1974
▁safely	-14.1975
▁rb	-14.1977
▁nicely	-14.1977
▁bark	-14.1978
▁debat	-14.1982
▁washer	-14.1983
▁dep	-14.1987
▁improved	-14.1989
▁erased	-14.1995
▁$9,	-14.2007
▁bridges	-14.2008
▁streets	-14.201
▁belt	-14.2011
▁contracting	-14.2012
ugal	-14.2012
▁wesley	-14.2017
▁previews	-14.202
▁ge	-14.2033
mended	-14.204
▁cog	-14.204
tro	-14.2049
ugh	-14.2051
▁doom	-14.2051
▁mil	-14.2054
▁bryant	-14.2057
▁slides	-14.2058
▁margin	-14.2058
▁chores	-14.2064
▁seeming	-14.2065
▁mailers	-14.2066
ina	-14.2066
▁utilized	-14.2075
▁tooth	-14.2081
▁complications	-14.2087
▁exceptions	-14.2089
sley	-14.21
▁tiered	-14.2118
▁pill	-14.2121
au	-14.2125
ga	-14.2126
▁determined	-14.2144
▁medics	-14.2146
hank	-14.2158
▁gra	-14.2165
rie	-14.2179
▁ville	-14.2179
▁branding	-14.2179
▁wong	-14.2181
▁bud	-14.2192
▁bend	-14.2204
▁rocks	-14.2208
▁bonds	-14.221
▁safer	-14.2221
▁cove	-14.2235
▁inner	-14.2238
▁grouping	-14.2264
▁exchanges	-14.2272
▁overly	-14.2287
branded	-14.2299
ssi	-14.2299
hl	-14.2318
▁cared	-14.232
▁radi	-14.2325
▁nam	-14.2344
▁acre	-14.2355
izing	-14.2373
nex	-14.2381
▁pickle	-14.239
gg	-14.2394
▁slots	-14.2397
▁demos	-14.2418
▁smile	-14.2422
▁supplier	-14.2426
▁telemarketer	-14.2431
▁outer	-14.2431
▁picker	-14.2431
▁attendee	-14.2434
ery	-14.2445
▁initiat	-14.2458
▁qa	-14.2485
hal	-14.2501
▁bikes	-14.253
▁roses	-14.2535
▁snap	-14.2541
▁ears	-14.2542
survey	-14.2545
▁nip	-14.2552
ellington	-14.2578
▁hype	-14.2583
eau	-14.2585
▁boats	-14.2586
day	-14.2587
▁hinder	-14.259
▁norma	-14.26
▁elevate	-14.2601
▁enhance	-14.2601
paid	-14.2603
▁discover	-14.2605
▁jeez	-14.2605
▁gilbert	-14.2606
▁pearl	-14.2607
▁blacklist	-14.2607
▁reckless	-14.2608
▁approximate	-14.2608
▁sporadic	-14.2608
junction	-14.2608
▁airbnb	-14.2608
▁atlantis	-14.2608
▁belky	-14.2608
▁bogota	-14.2608
▁converse	-14.2608
▁deserve	-14.2608
▁dorsey	-14.2608
▁elegant	-14.2608
▁elevator	-14.2608
▁expiring	-14.2608
▁feasible	-14.2608
▁hayden	-14.2608
▁housecleaning	-14.2608
▁indianapolis	-14.2608
▁insync	-14.2608
▁loudspeaker	-14.2608
▁manhattan	-14.2608
▁notifies	-14.2608
▁politics	-14.2608
▁qiu	-14.2608
▁qualification	-14.2608
▁registries	-14.2608
▁rodrigo	-14.2608
▁satistics	-14.2608
▁semester	-14.2608
▁sneeze	-14.2608
▁surrey	-14.2608
▁theodore	-14.2608
▁therapist	-14.2608
▁tucson	-14.2608
▁unclicked	-14.2608
▁unrelated	-14.2608
▁waterbury	-14.2608
▁bishop	-14.2608
▁dangerous	-14.2608
▁distraction	-14.2608
▁emilia	-14.2608
▁holler	-14.2608
▁html	-14.2608
▁kaposi	-14.2608
▁lecture	-14.2608
▁molina	-14.2608
▁vibrate	-14.2608
▁quack	-14.2608
▁ballpark	-14.2608
▁facilitator	-14.2608
▁precise	-14.2608
▁baptist	-14.2608
▁espar	-14.2608
▁jonas	-14.2608
▁ordinary	-14.2608
▁salad	-14.2608
▁expertise	-14.2608
▁hartman	-14.2608
▁derose	-14.2608
▁marianna	-14.2608
▁reduction	-14.2608
▁distinction	-14.2608
▁farmington	-14.2608
▁savannah	-14.2608
▁distracting	-14.2608
▁friedman	-14.2608
▁depressed	-14.2608
▁docket	-14.2608
▁yada	-14.2608
▁herrera	-14.2608
▁hughes	-14.2608
▁valable	-14.2608
▁ramsey	-14.2608
▁7:45	-14.2608
▁barcode	-14.2608
▁moderate	-14.2608
▁liable	-14.2608
▁deval	-14.2608
▁flipping	-14.2608
▁morrison	-14.2608
▁canyon	-14.2608
▁mapping	-14.2608
▁emulate	-14.2608
▁patron	-14.2608
▁practically	-14.2608
▁swan	-14.2608
▁josephine	-14.2608
▁protest	-14.2608
▁coke	-14.2608
▁diving	-14.2608
▁$34	-14.2608
▁bruno	-14.2608
▁laser	-14.2608
▁dishes	-14.2608
▁intact	-14.2609
▁misleading	-14.2609
▁nike	-14.2609
▁bison	-14.2609
▁pitches	-14.2609
▁oak	-14.2609
▁coastal	-14.2609
▁benson	-14.2609
▁reaction	-14.2609
▁$11	-14.2609
▁frontier	-14.2609
▁eaten	-14.2609
▁drawer	-14.2609
▁broader	-14.2609
▁brush	-14.2609
▁lockdown	-14.2609
▁earth	-14.261
▁penis	-14.261
▁sharp	-14.261
▁tesco	-14.261
▁buzzing	-14.261
▁hungry	-14.261
▁merrick	-14.261
▁singing	-14.2611
▁harvest	-14.2611
▁cio	-14.2612
▁guideline	-14.2613
▁lying	-14.2613
▁recycled	-14.2613
▁younger	-14.2614
▁accurately	-14.2614
▁executed	-14.2615
▁fucked	-14.2615
▁cooking	-14.2615
▁ol	-14.2615
▁legally	-14.2615
▁sleeping	-14.2616
▁specification	-14.2617
▁directive	-14.2619
▁tao	-14.262
▁node	-14.2621
▁lighter	-14.2621
▁stroll	-14.2621
▁cheat	-14.2622
▁ankle	-14.2622
▁rossi	-14.2624
▁perch	-14.2625
▁downsize	-14.2632
▁worthy	-14.2632
▁swing	-14.2633
that	-14.2635
▁signage	-14.2636
▁cas	-14.2637
▁trusting	-14.2637
▁players	-14.2637
▁agreeing	-14.2642
▁modest	-14.2643
▁advertised	-14.2644
▁downloadable	-14.2645
▁brave	-14.2647
za	-14.2654
▁observed	-14.2656
▁rh	-14.2661
▁tonya	-14.2663
▁curl	-14.2669
ball	-14.2684
▁prospecti	-14.2695
▁award	-14.27
▁onion	-14.2701
ec	-14.2701
▁xp	-14.2712
▁kirk	-14.2713
▁notch	-14.2715
our	-14.272
▁films	-14.2727
▁mice	-14.2729
▁91	-14.2755
▁sprouts	-14.2764
▁boyd	-14.2767
▁ja	-14.2772
▁ibm	-14.2777
ward	-14.2778
ou	-14.2785
▁indi	-14.2799
chi	-14.2806
ara	-14.2813
▁34	-14.2814
▁char	-14.2814
▁hostess	-14.2819
fer	-14.2822
link	-14.2866
▁freely	-14.2871
▁cops	-14.2875
▁prima	-14.29
▁mala	-14.2901
▁abilities	-14.2931
▁refills	-14.2956
lish	-14.2963
cca	-14.2976
▁selections	-14.2981
vo	-14.2983
bar	-14.2997
ade	-14.3007
▁matthews	-14.3007
if	-14.302
▁wards	-14.3026
▁refers	-14.3026
ute	-14.3044
▁mit	-14.3073
elle	-14.3074
▁originat	-14.3075
▁alternatives	-14.3078
▁entertain	-14.3087
▁buildings	-14.3088
▁9:2	-14.3088
pf	-14.3103
▁interiors	-14.3111
rate	-14.3117
▁ki	-14.3123
berry	-14.3123
▁neighbors	-14.3138
▁appliance	-14.3138
▁breeder	-14.3138
▁surgeon	-14.314
▁stickers	-14.3144
▁modification	-14.3145
▁planes	-14.3145
exus	-14.3146
▁relates	-14.3151
▁santo	-14.3152
sq	-14.3167
ac	-14.3178
ria	-14.3185
▁apis	-14.3185
▁male	-14.3201
▁units	-14.3212
▁cps	-14.3215
▁shore	-14.3232
▁timestamps	-14.3236
▁sizes	-14.324
▁firms	-14.3274
ep	-14.3279
▁reprogram	-14.329
pro	-14.3291
▁mimic	-14.3309
sex	-14.3309
▁affiliate	-14.3315
▁capitalize	-14.3316
▁execute	-14.3316
▁consolidate	-14.3316
▁gay	-14.332
▁reform	-14.3321
▁russel	-14.3321
▁photograph	-14.3321
rlington	-14.3322
▁clement	-14.3322
▁dutch	-14.3322
▁alonda	-14.3322
▁argonide	-14.3322
▁argue	-14.3322
▁azure	-14.3322
▁bangalore	-14.3322
▁bartenders	-14.3322
▁brampton	-14.3322
▁broadband	-14.3322
▁busiest	-14.3322
▁caregiver	-14.3322
▁caribbean	-14.3322
▁cemetery	-14.3322
▁chunk	-14.3322
▁corinne	-14.3322
▁defeat	-14.3322
▁demain	-14.3322
▁dwayne	-14.3322
▁elisabeth	-14.3322
▁entitled	-14.3322
▁envy	-14.3322
▁explicit	-14.3322
▁fluctuating	-14.3322
▁gonzales	-14.3322
▁grip	-14.3322
▁henderson	-14.3322
▁houma	-14.3322
▁identifier	-14.3322
▁imelda	-14.3322
▁koski	-14.3322
▁litigation	-14.3322
▁mattikalli	-14.3322
▁mcgwire	-14.3322
▁mendez	-14.3322
▁meredith	-14.3322
▁ohagan	-14.3322
▁pharmacist	-14.3322
▁phillips	-14.3322
▁pinnacle	-14.3322
▁preamble	-14.3322
▁producing	-14.3322
▁quebec	-14.3322
▁quoting	-14.3322
▁racial	-14.3322
▁relies	-14.3322
▁revisor	-14.3322
▁salvage	-14.3322
▁saudi	-14.3322
▁serena	-14.3322
▁stovall	-14.3322
▁victim	-14.3322
▁fixture	-14.3322
▁hodge	-14.3322
▁memories	-14.3322
▁septic	-14.3322
▁shelton	-14.3322
▁surround	-14.3322
▁turkey	-14.3322
▁cement	-14.3322
▁duper	-14.3322
▁edwin	-14.3322
▁leach	-14.3322
▁marlene	-14.3322
▁sunset	-14.3322
▁lazy	-14.3322
▁leonard	-14.3322
▁military	-14.3322
▁molar	-14.3322
▁sensing	-14.3322
▁symmetry	-14.3322
▁unsafe	-14.3322
▁coupon	-14.3322
▁celine	-14.3322
▁dolce	-14.3322
▁iraq	-14.3322
▁yoga	-14.3322
▁basket	-14.3322
▁podio	-14.3322
▁lanny	-14.3322
▁slice	-14.3322
▁smtp	-14.3322
▁$99	-14.3322
▁hurdle	-14.3322
▁bicycle	-14.3322
▁jillian	-14.3322
▁corson	-14.3322
▁scribe	-14.3322
▁piano	-14.3322
▁spur	-14.3323
▁wrapping	-14.3323
▁instructor	-14.3323
▁reproduce	-14.3323
▁printout	-14.3323
▁fitness	-14.3323
▁modal	-14.3323
▁quitting	-14.3323
▁pllc	-14.3323
▁lockout	-14.3323
▁rooter	-14.3323
▁guber	-14.3323
▁$17	-14.3323
▁wallet	-14.3323
▁hardwood	-14.3323
▁sinus	-14.3323
▁steady	-14.3323
▁kang	-14.3323
▁machinery	-14.3324
▁cargo	-14.3324
▁poland	-14.3324
▁tyson	-14.3324
▁fold	-14.3324
▁impel	-14.3324
▁burner	-14.3324
▁echoey	-14.3324
▁elise	-14.3324
▁sharma	-14.3324
▁marino	-14.3325
▁negotiate	-14.3325
▁visitor	-14.3325
▁duran	-14.3325
▁dna	-14.3325
▁counties	-14.3325
▁iron	-14.3327
▁tenure	-14.3327
▁mister	-14.3327
▁hizer	-14.3328
▁laughing	-14.3328
▁preferable	-14.3328
ably	-14.3328
▁casting	-14.3329
▁harden	-14.3329
point	-14.3329
▁moran	-14.3329
▁interacting	-14.333
▁claimed	-14.333
▁bray	-14.333
▁confuses	-14.333
▁presently	-14.3331
▁colder	-14.3332
▁similarly	-14.3332
▁manipulate	-14.3332
▁risky	-14.3333
▁cnn	-14.3333
▁reside	-14.3333
▁targeting	-14.3335
▁pier	-14.3335
▁rainy	-14.3338
▁nano	-14.3339
▁nonda	-14.3342
▁trailing	-14.3344
▁quali	-14.3346
▁ledo	-14.3346
▁arrived	-14.3347
▁presenter	-14.3348
▁quan	-14.3348
▁hon	-14.3348
▁diagnose	-14.3349
▁matched	-14.3351
▁enjoyed	-14.3355
▁vv	-14.3357
▁nexamp	-14.3357
▁fuller	-14.3358
gel	-14.336
▁prioritized	-14.3362
▁brass	-14.3362
▁clips	-14.3366
▁moore	-14.3366
▁adan	-14.3369
ular	-14.3381
▁caesars	-14.3383
ware	-14.3393
atube	-14.3401
gan	-14.3402
▁brandi	-14.3408
▁dotted	-14.341
▁howdy	-14.3411
▁loc	-14.3414
▁asper	-14.3415
ridge	-14.3417
▁cypress	-14.3417
▁yuri	-14.3432
▁mortgages	-14.3437
▁gl	-14.3453
▁alexa	-14.3465
▁sentences	-14.3471
▁departmental	-14.3472
▁touring	-14.3476
cast	-14.3485
ten	-14.3487
mitted	-14.3488
▁ea	-14.3491
▁faxed	-14.3497
brace	-14.3497
▁ros	-14.3502
ros	-14.3506
▁sham	-14.3507
ries	-14.3519
▁5:5	-14.3521
▁blows	-14.3525
▁soci	-14.3525
▁bore	-14.3529
▁boxing	-14.355
▁pino	-14.3558
▁philips	-14.3562
gh	-14.3565
ella	-14.3587
▁gran	-14.359
▁grounds	-14.3594
ach	-14.3602
▁rains	-14.3605
▁fran	-14.3611
▁antic	-14.3624
▁nurses	-14.3655
iff	-14.366
ze	-14.3664
▁headers	-14.3671
▁mari	-14.3675
▁analysts	-14.3683
inary	-14.3698
▁aligns	-14.3705
vers	-14.3749
▁bare	-14.3759
stic	-14.3766
▁advocates	-14.3768
tter	-14.3782
ata	-14.3787
act	-14.3788
▁millers	-14.3789
ile	-14.3797
▁99	-14.3801
▁tha	-14.3803
▁updater	-14.3815
▁structures	-14.3818
▁fishel	-14.3819
aria	-14.3832
▁dory	-14.3849
you	-14.3851
ative	-14.3853
▁tactic	-14.3855
dash	-14.3867
▁stages	-14.388
▁increases	-14.3886
▁promises	-14.3888
tz	-14.3904
▁barber	-14.391
▁johnston	-14.391
▁stair	-14.391
▁sprout	-14.3913
▁builder	-14.3915
▁complication	-14.3915
▁stein	-14.3916
▁titles	-14.3917
▁plantronic	-14.3919
▁phrases	-14.3922
▁afterward	-14.3925
▁musical	-14.3927
ient	-14.3933
▁teens	-14.3951
▁shoulder	-14.3959
▁wood	-14.3962
▁cur	-14.3965
bra	-14.3988
▁transcribes	-14.3989
▁wh	-14.399
▁driven	-14.3997
▁opera	-14.4007
▁bali	-14.4022
aul	-14.4023
▁maxim	-14.4032
ganic	-14.4033
▁quad	-14.4046
lar	-14.4051
▁loops	-14.4068
eck	-14.4073
▁vista	-14.4078
▁juan	-14.4084
ocal	-14.4084
▁conclude	-14.4084
▁merit	-14.4085
▁bree	-14.4086
▁scrap	-14.4088
▁marsh	-14.4089
▁recur	-14.409
▁buffer	-14.409
▁reestablish	-14.4091
▁polish	-14.4091
▁deduct	-14.4091
▁divert	-14.4091
▁adapt	-14.4091
▁realistic	-14.4091
▁adobe	-14.4091
▁approving	-14.4091
▁artificial	-14.4091
▁bellevue	-14.4091
▁bookkeeper	-14.4091
▁cannabis	-14.4091
▁chandra	-14.4091
▁chemical	-14.4091
▁collaborate	-14.4091
▁computation	-14.4091
▁courage	-14.4091
▁crisp	-14.4091
▁declare	-14.4091
▁dictionary	-14.4091
▁dimitri	-14.4091
▁discard	-14.4091
▁dolphin	-14.4091
▁emergencies	-14.4091
▁emerging	-14.4091
▁enrique	-14.4091
▁ernest	-14.4091
▁estimation	-14.4091
▁evaluating	-14.4091
▁exchanging	-14.4091
▁festival	-14.4091
▁friction	-14.4091
▁graduate	-14.4091
▁inconsistencies	-14.4091
▁institution	-14.4091
▁kaylynn	-14.4091
▁liaison	-14.4091
▁liquor	-14.4091
▁manufacturing	-14.4091
▁naples	-14.4091
▁narrative	-14.4091
▁nutshell	-14.4091
▁odyssey	-14.4091
▁referencing	-14.4091
▁roadmap	-14.4091
▁sacrifice	-14.4091
▁satisfy	-14.4091
▁scoring	-14.4091
▁selena	-14.4091
▁shaffer	-14.4091
▁siemens	-14.4091
▁solace	-14.4091
▁spiel	-14.4091
▁strive	-14.4091
▁telemedicine	-14.4091
▁terence	-14.4091
▁twist	-14.4091
▁velocity	-14.4091
▁worthwhile	-14.4091
▁asleep	-14.4092
▁holland	-14.4092
▁landscape	-14.4092
▁preserve	-14.4092
▁rosenberg	-14.4092
▁ukraine	-14.4092
▁accompany	-14.4092
▁basketball	-14.4092
▁execution	-14.4092
▁glance	-14.4092
▁huddle	-14.4092
▁hughston	-14.4092
▁insured	-14.4092
▁interval	-14.4092
▁podcast	-14.4092
▁diversion	-14.4092
▁louisiana	-14.4092
▁residence	-14.4092
▁termination	-14.4092
▁waterfront	-14.4092
▁beverage	-14.4092
▁monster	-14.4092
▁nita	-14.4092
▁ugly	-14.4092
▁congregation	-14.4092
▁radically	-14.4092
▁roommate	-14.4092
▁governor	-14.4092
▁juice	-14.4092
▁estimating	-14.4092
▁stability	-14.4092
▁phonetically	-14.4092
▁vinny	-14.4092
▁dragging	-14.4092
▁unpaid	-14.4092
▁bowman	-14.4092
▁embarrassed	-14.4092
▁greek	-14.4092
▁lbj	-14.4092
▁alignment	-14.4092
▁corrupted	-14.4092
▁subset	-14.4092
▁stash	-14.4092
▁shitty	-14.4092
▁walkthrough	-14.4092
▁fyi	-14.4092
▁harassing	-14.4092
▁programmed	-14.4092
▁italian	-14.4092
▁designation	-14.4092
▁deem	-14.4092
▁numb	-14.4092
▁dmv	-14.4092
▁foresee	-14.4092
▁crusher	-14.4092
▁overloaded	-14.4092
▁bumper	-14.4092
▁progression	-14.4092
▁powerhouse	-14.4092
▁dresses	-14.4093
▁irritating	-14.4093
▁bmc	-14.4093
▁losses	-14.4093
▁eden	-14.4093
▁dante	-14.4093
▁heritage	-14.4093
▁altar	-14.4093
▁bypasses	-14.4093
▁xml	-14.4093
▁fruit	-14.4093
▁represented	-14.4094
▁astor	-14.4094
▁dhs	-14.4094
▁robertson	-14.4095
▁extracting	-14.4095
▁mobio	-14.4095
▁resigned	-14.4095
▁overload	-14.4095
▁dense	-14.4096
▁compar	-14.4096
▁lawson	-14.4096
▁dsl	-14.4096
▁giant	-14.4096
▁publishing	-14.4096
▁lifetime	-14.4096
▁remy	-14.4096
▁towed	-14.4096
▁container	-14.4096
lux	-14.4097
▁miley	-14.4097
stop	-14.4097
▁intending	-14.4097
flux	-14.4098
▁cope	-14.4098
▁sherri	-14.4098
▁flyer	-14.4098
▁prayed	-14.4099
▁smb	-14.4099
▁broadcasting	-14.41
▁purposely	-14.4102
▁comedy	-14.4102
▁worn	-14.4102
▁berries	-14.4102
▁relaunched	-14.4103
ister	-14.4103
▁nu	-14.4105
▁kline	-14.4105
▁moo	-14.4106
▁lend	-14.4107
▁subjected	-14.4107
▁synchronized	-14.4109
▁sticky	-14.4109
▁parked	-14.4109
▁personality	-14.4111
▁mau	-14.4112
▁reminding	-14.4113
▁oman	-14.4118
▁bundled	-14.4118
▁devil	-14.412
▁qc	-14.4121
▁faulty	-14.4121
ried	-14.4122
▁severe	-14.4125
▁paycheck	-14.4127
▁della	-14.4127
sisting	-14.4128
▁centogene	-14.4129
▁restorative	-14.4129
▁compensate	-14.413
grown	-14.4136
▁msa	-14.4139
fl	-14.414
connor	-14.4141
▁pbm	-14.4142
▁recreated	-14.4148
stream	-14.4153
▁shar	-14.4154
▁topping	-14.4154
▁mytel	-14.4155
▁ignored	-14.4163
ache	-14.4165
▁bubbles	-14.4167
room	-14.417
▁ver	-14.4171
▁mechanical	-14.4174
ake	-14.4175
▁dispositions	-14.4176
▁bolt	-14.4177
iva	-14.4178
loy	-14.4187
▁gated	-14.4194
▁stead	-14.4195
▁dragon	-14.4196
claim	-14.4205
▁stem	-14.4206
cra	-14.421
▁towers	-14.4211
▁keeper	-14.4212
▁trap	-14.4213
▁programmers	-14.4215
ization	-14.4229
▁staples	-14.423
▁loser	-14.423
▁spit	-14.4254
▁hood	-14.4262
▁41	-14.4264
cia	-14.4271
▁conventional	-14.4277
▁acc	-14.4282
▁shores	-14.4289
▁buds	-14.4312
▁tangle	-14.4322
ova	-14.4333
▁blown	-14.4334
▁32	-14.4336
art	-14.4342
dic	-14.4346
▁entails	-14.4363
▁pole	-14.4368
▁pointer	-14.4379
▁vehicles	-14.4398
▁astro	-14.4398
▁flights	-14.4404
mar	-14.4405
▁temper	-14.4406
▁ticks	-14.4408
old	-14.4464
▁ensures	-14.4466
▁roosters	-14.4468
▁procedures	-14.4503
▁graphics	-14.4513
ingle	-14.4517
▁recalls	-14.4527
▁flags	-14.4549
▁snipp	-14.4554
▁faqs	-14.4559
seeing	-14.4559
▁pic	-14.4583
ise	-14.4586
▁bones	-14.4589
ovi	-14.46
▁lim	-14.4605
hanged	-14.4607
una	-14.4613
ept	-14.4623
▁hearts	-14.463
ol	-14.4633
▁stations	-14.4636
kee	-14.4637
▁timo	-14.4643
▁nonprofits	-14.465
▁practices	-14.4687
▁minas	-14.4697
eth	-14.4711
rg	-14.4714
:40	-14.4715
▁senti	-14.4724
▁convention	-14.4728
swor	-14.4736
▁shepherd	-14.4745
dio	-14.4756
▁basi	-14.4758
▁lied	-14.4758
ik	-14.4766
▁ranges	-14.477
▁shots	-14.4776
car	-14.4779
▁packs	-14.48
▁carries	-14.4804
tar	-14.4813
rp	-14.4822
▁95	-14.4827
▁sch	-14.4831
▁dynamics	-14.4837
▁accu	-14.4838
▁bog	-14.484
▁correction	-14.4849
▁hires	-14.4853
▁2:3	-14.4895
ich	-14.4895
▁weigh	-14.4897
▁cock	-14.4899
▁mimi	-14.4901
ying	-14.4902
▁hart	-14.4903
▁starter	-14.491
▁waters	-14.4911
▁highlights	-14.4912
olution	-14.4912
▁crush	-14.4913
arcy	-14.4918
▁advantages	-14.4921
▁ensur	-14.4922
▁spoof	-14.4923
▁climb	-14.4923
▁counsel	-14.4923
▁conch	-14.4923
▁sketch	-14.4924
▁bail	-14.4924
▁construct	-14.4925
▁exploit	-14.4925
▁airplane	-14.4925
▁andreessen	-14.4925
▁bargain	-14.4925
▁beauterre	-14.4925
▁berkeley	-14.4925
▁boulevard	-14.4925
▁buzzword	-14.4925
▁capturing	-14.4925
▁carvertise	-14.4925
▁cleveland	-14.4925
▁concord	-14.4925
▁conscious	-14.4925
▁cultural	-14.4925
▁daisy	-14.4925
▁dammit	-14.4925
▁dawson	-14.4925
▁dillard	-14.4925
▁disclosure	-14.4925
▁distancing	-14.4925
▁drift	-14.4925
▁duties	-14.4925
▁emotional	-14.4925
▁enemy	-14.4925
▁envelope	-14.4925
▁exclusion	-14.4925
▁exterior	-14.4925
▁graig	-14.4925
▁hockey	-14.4925
▁kendra	-14.4925
▁lindsey	-14.4925
▁linux	-14.4925
▁locksmith	-14.4925
▁manifest	-14.4925
▁marquis	-14.4925
▁mcclane	-14.4925
▁melbourne	-14.4925
▁mohamad	-14.4925
▁nonetheless	-14.4925
▁outbreak	-14.4925
▁overwrite	-14.4925
▁paypal	-14.4925
▁phantom	-14.4925
▁plastic	-14.4925
▁plural	-14.4925
▁population	-14.4925
▁possum	-14.4925
▁precious	-14.4925
▁prescott	-14.4925
▁raquel	-14.4925
▁reckon	-14.4925
▁reprocess	-14.4925
▁ritual	-14.4925
▁robbins	-14.4925
▁santiago	-14.4925
▁scalable	-14.4925
▁seminal	-14.4925
▁sewer	-14.4925
▁spacious	-14.4925
▁spohn	-14.4925
▁sterling	-14.4925
▁surcharge	-14.4925
▁swimming	-14.4925
▁tourist	-14.4925
▁tracing	-14.4925
▁trailblazer	-14.4925
▁translating	-14.4925
▁underwear	-14.4925
▁unhappy	-14.4925
▁buggy	-14.4925
▁detach	-14.4925
▁lynch	-14.4925
▁nevin	-14.4925
▁smoke	-14.4925
▁maryann	-14.4925
▁orlando	-14.4925
▁pallet	-14.4925
▁rosalee	-14.4925
▁saddle	-14.4925
▁advocation	-14.4925
▁clipboard	-14.4925
▁richmond	-14.4925
▁blew	-14.4925
▁felix	-14.4925
▁blunt	-14.4925
▁boring	-14.4925
▁buckey	-14.4925
▁chasing	-14.4925
▁belief	-14.4925
▁dario	-14.4925
▁deport	-14.4925
▁mitel	-14.4925
▁quinton	-14.4925
▁lamar	-14.4925
▁radius	-14.4925
▁bdc	-14.4925
▁diesel	-14.4925
▁genie	-14.4925
▁reverently	-14.4925
▁truman	-14.4925
▁misley	-14.4925
▁eroh	-14.4925
▁capstone	-14.4925
▁forecast	-14.4925
▁clayton	-14.4925
▁clinton	-14.4925
▁offsite	-14.4925
▁sanchez	-14.4925
▁freshening	-14.4925
▁westward	-14.4925
▁clueless	-14.4925
▁clint	-14.4925
▁injury	-14.4925
▁alina	-14.4925
▁excessively	-14.4925
▁alisa	-14.4925
▁impressive	-14.4925
▁marketstar	-14.4925
▁oriented	-14.4925
▁precisely	-14.4925
▁resubmitting	-14.4925
▁gesture	-14.4925
▁friendship	-14.4925
▁roberson	-14.4925
▁biden	-14.4925
▁recycling	-14.4925
▁fanning	-14.4925
▁bride	-14.4925
▁loma	-14.4925
▁wade	-14.4925
▁12:30	-14.4925
▁cecily	-14.4925
▁shady	-14.4926
▁elder	-14.4926
▁vtech	-14.4926
▁fanny	-14.4926
▁analytical	-14.4926
▁barrow	-14.4926
▁plot	-14.4926
▁rebuilding	-14.4926
▁gino	-14.4926
▁athlete	-14.4926
▁panda	-14.4926
▁adler	-14.4926
▁betsy	-14.4926
▁earning	-14.4926
▁tendered	-14.4926
▁diverse	-14.4926
▁unloaded	-14.4926
▁richardson	-14.4926
▁dmc	-14.4927
▁feb	-14.4927
▁favorable	-14.4927
▁buses	-14.4927
▁dub	-14.4927
▁barking	-14.4927
▁tapped	-14.4928
▁inclusion	-14.4928
▁facetime	-14.4928
▁beaches	-14.4928
▁tristan	-14.4928
▁taco	-14.4928
▁skiing	-14.4928
▁skilled	-14.4928
▁stronger	-14.4929
▁jeeze	-14.4929
▁representing	-14.4929
fusing	-14.4929
▁zena	-14.4929
▁workload	-14.4929
▁rebate	-14.4929
▁deliberate	-14.493
▁anchor	-14.493
▁bitch	-14.493
▁delivering	-14.493
▁anticipated	-14.493
▁convinced	-14.493
▁ltd	-14.4931
▁billers	-14.4932
▁nominate	-14.4932
▁coley	-14.4932
▁slab	-14.4933
▁entic	-14.4934
▁walkie	-14.4934
▁checklist	-14.4935
▁providence	-14.4935
▁mania	-14.4936
▁outright	-14.4936
▁genia	-14.4938
▁analyze	-14.4938
▁squeeze	-14.4938
▁9:5	-14.4939
▁ppc	-14.494
▁eleventh	-14.494
▁realtor	-14.4941
▁pig	-14.4941
▁sara	-14.4941
▁dancer	-14.4943
▁reconnecting	-14.4943
▁thankfully	-14.4945
▁aaa	-14.4945
▁racer	-14.4947
alia	-14.4947
▁finalized	-14.4951
73	-14.4951
▁mated	-14.4952
▁cj	-14.4952
▁accord	-14.4953
tally	-14.4954
▁shareable	-14.4955
▁effected	-14.4956
▁orgy	-14.4958
▁jw	-14.496
▁ridge	-14.4961
▁arranged	-14.4962
▁wx	-14.4964
▁novo	-14.4964
▁decades	-14.4965
▁categorize	-14.4965
▁hourly	-14.4966
▁doubling	-14.4966
ala	-14.4967
▁villa	-14.4968
▁suspected	-14.4969
▁traded	-14.4981
▁lowered	-14.4982
▁longtime	-14.4983
gar	-14.4984
lip	-14.4989
ja	-14.4991
▁merger	-14.4993
llow	-14.4994
▁fade	-14.4995
▁nolan	-14.4996
▁blm	-14.4996
▁moh	-14.4997
▁bind	-14.5016
▁powering	-14.5019
95	-14.5025
20	-14.5032
▁rises	-14.5033
▁hazard	-14.5037
▁chairs	-14.5042
▁prizes	-14.5044
▁thankful	-14.5045
▁df	-14.5046
▁needle	-14.5048
▁proceeding	-14.5054
speed	-14.5058
drop	-14.5058
▁spins	-14.5068
▁weak	-14.5071
▁melt	-14.5071
▁appraisers	-14.5076
bing	-14.5079
▁forming	-14.5096
▁shepherds	-14.5108
▁dapp	-14.5122
▁ammo	-14.5122
▁meters	-14.5126
▁mesh	-14.5127
▁boarded	-14.5137
▁nora	-14.5141
ye	-14.5145
▁kl	-14.5147
gian	-14.516
▁grad	-14.5164
lease	-14.5171
air	-14.518
▁arie	-14.5183
▁brackets	-14.5189
select	-14.5192
works	-14.5192
aro	-14.5193
ora	-14.5196
▁mcc	-14.5197
ndi	-14.52
▁whitelist	-14.5209
▁wal	-14.5209
▁receivers	-14.5236
ches	-14.5241
rado	-14.5242
▁helpline	-14.5246
ji	-14.526
ailing	-14.5296
▁nations	-14.5319
aker	-14.5333
tone	-14.5334
rous	-14.5338
▁buckle	-14.5345
▁promos	-14.5366
end	-14.5371
lot	-14.5379
ison	-14.5391
ering	-14.54
uc	-14.5401
care	-14.5417
ious	-14.5426
pose	-14.5429
hea	-14.543
aries	-14.5431
▁59	-14.5453
▁hind	-14.5465
▁weights	-14.5467
▁9:4	-14.547
isha	-14.5492
eal	-14.5497
▁fonts	-14.5519
▁bri	-14.5536
▁degrees	-14.5536
▁predict	-14.5536
▁soda	-14.5565
ening	-14.5573
▁pumps	-14.5576
bro	-14.5587
▁isla	-14.563
bot	-14.5632
sell	-14.5635
▁yan	-14.5638
lor	-14.5639
▁aro	-14.5641
▁academic	-14.565
▁floors	-14.5654
▁circumstance	-14.5657
bed	-14.5658
▁headquarter	-14.566
▁chore	-14.5661
▁7:5	-14.5665
orse	-14.5674
▁bl	-14.5675
▁mailer	-14.5679
▁backward	-14.5683
▁pairs	-14.5689
erson	-14.569
eca	-14.5705
▁wage	-14.5712
▁wins	-14.5716
anning	-14.5717
rl	-14.5722
▁surfaces	-14.5723
▁badges	-14.5775
▁vol	-14.5784
jo	-14.5792
▁tra	-14.5794
pple	-14.5798
using	-14.5808
under	-14.5809
▁brea	-14.5813
▁forces	-14.5822
▁recycle	-14.5828
▁len	-14.583
▁determin	-14.583
▁prorate	-14.583
▁reduc	-14.5831
▁practic	-14.5831
▁grout	-14.5832
▁calculat	-14.5833
▁relax	-14.5833
▁ellis	-14.5834
▁gentle	-14.5834
▁virgin	-14.5834
▁albany	-14.5834
▁amelia	-14.5834
▁astrid	-14.5834
▁bellsouth	-14.5834
▁bridging	-14.5834
▁capsule	-14.5834
▁captain	-14.5834
▁ceiling	-14.5834
▁chromium	-14.5834
▁daphne	-14.5834
▁detroit	-14.5834
▁divorce	-14.5834
▁eabor	-14.5834
▁ebay	-14.5834
▁evaluators	-14.5834
▁evergreen	-14.5834
▁financing	-14.5834
▁finicity	-14.5834
▁fluctuation	-14.5834
▁hampton	-14.5834
▁happier	-14.5834
▁hershey	-14.5834
▁holistic	-14.5834
▁humphreys	-14.5834
▁illegal	-14.5834
▁imaging	-14.5834
▁imitation	-14.5834
▁instacart	-14.5834
▁instagram	-14.5834
▁ishmael	-14.5834
▁jenkins	-14.5834
▁karaoke	-14.5834
▁kirsten	-14.5834
▁lonnie	-14.5834
▁macmurray	-14.5834
▁maddox	-14.5834
▁margarita	-14.5834
▁massachusetts	-14.5834
▁mckeithen	-14.5834
▁mckenna	-14.5834
▁minimizing	-14.5834
▁munoz	-14.5834
▁naomi	-14.5834
▁nebraska	-14.5834
▁nimble	-14.5834
▁prelim	-14.5834
▁presumably	-14.5834
▁principle	-14.5834
▁rasmussen	-14.5834
▁regenerate	-14.5834
▁reiland	-14.5834
▁restoring	-14.5834
▁ritani	-14.5834
▁rojas	-14.5834
▁sheldon	-14.5834
▁sourcing	-14.5834
▁switzerland	-14.5834
▁territories	-14.5834
▁tranged	-14.5834
▁travelliance	-14.5834
▁tremblay	-14.5834
▁unanswered	-14.5834
▁variation	-14.5834
▁whitlow	-14.5834
▁wizard	-14.5834
▁yelp	-14.5834
▁yourselves	-14.5834
▁cadence	-14.5834
▁denmark	-14.5834
▁doodle	-14.5834
▁dread	-14.5834
▁goofy	-14.5834
▁hicksville	-14.5834
▁loft	-14.5834
▁nellie	-14.5834
▁praytor	-14.5834
▁prohibit	-14.5834
▁refurbish	-14.5834
▁sandbox	-14.5834
▁sebastian	-14.5834
▁shelter	-14.5834
▁tropic	-14.5834
▁awake	-14.5834
▁duplication	-14.5834
▁fellowship	-14.5834
▁lemonade	-14.5834
▁teeth	-14.5834
▁bethany	-14.5834
▁burda	-14.5834
▁dairy	-14.5834
▁fuel	-14.5834
▁realistically	-14.5834
▁rouser	-14.5834
▁trademark	-14.5834
▁clever	-14.5834
▁ernie	-14.5834
▁priest	-14.5834
▁snail	-14.5834
▁sophisticated	-14.5834
▁telia	-14.5834
▁ferry	-14.5834
▁guam	-14.5834
▁haze	-14.5834
▁monkey	-14.5834
▁probate	-14.5834
▁bridgeport	-14.5834
▁winston	-14.5834
▁anika	-14.5834
▁genda	-14.5834
▁mansfield	-14.5834
▁airpods	-14.5834
▁reimbursement	-14.5834
▁vivian	-14.5834
▁angelica	-14.5834
▁counselor	-14.5834
▁nannie	-14.5834
▁attendance	-14.5834
▁representation	-14.5834
▁classworks	-14.5834
▁revoke	-14.5834
▁guru	-14.5834
▁keynes	-14.5834
▁keenan	-14.5834
▁shelley	-14.5834
▁specialty	-14.5834
▁settlement	-14.5834
▁species	-14.5834
▁dormant	-14.5834
▁sideways	-14.5834
▁nineties	-14.5834
hogan	-14.5834
▁hammer	-14.5834
▁flier	-14.5834
▁hatch	-14.5834
▁halo	-14.5834
▁candice	-14.5834
▁chaz	-14.5834
▁decay	-14.5834
▁cf	-14.5834
▁tremendously	-14.5834
▁norris	-14.5834
▁ghana	-14.5834
▁rhea	-14.5834
▁relocate	-14.5834
▁crises	-14.5834
▁mercer	-14.5834
▁arriving	-14.5834
▁significantly	-14.5835
▁57	-14.5835
▁repeatedly	-14.5835
▁waking	-14.5835
▁formatting	-14.5835
▁03	-14.5835
▁jenner	-14.5835
▁berlin	-14.5835
▁recount	-14.5835
▁cornerstone	-14.5835
▁qos	-14.5835
▁patton	-14.5835
▁christianity	-14.5835
▁garbled	-14.5835
▁clause	-14.5835
▁luna	-14.5835
▁leoni	-14.5835
▁$32	-14.5835
▁dvr	-14.5835
▁fever	-14.5835
▁headway	-14.5836
▁imagery	-14.5836
▁masses	-14.5836
▁efficiently	-14.5836
▁booster	-14.5836
▁stellar	-14.5836
▁redone	-14.5836
▁liliana	-14.5836
▁stir	-14.5836
▁spotty	-14.5836
▁greed	-14.5836
▁onwards	-14.5836
▁leery	-14.5836
▁squid	-14.5836
▁teaches	-14.5837
▁breeding	-14.5837
▁bpo	-14.5837
▁talkdesk	-14.5837
▁contested	-14.5837
▁provo	-14.5837
▁dsp	-14.5838
▁degraded	-14.5839
▁pumping	-14.5839
▁nerve	-14.584
▁suspecting	-14.584
▁shuffle	-14.584
▁cooked	-14.584
▁avid	-14.584
▁retailer	-14.584
validation	-14.5841
▁ranking	-14.5841
▁chest	-14.5841
▁usability	-14.5841
▁baseline	-14.5841
▁hq	-14.5842
▁scar	-14.5842
▁levine	-14.5842
▁compile	-14.5842
▁tangled	-14.5842
▁lexi	-14.5842
94	-14.5843
▁manageable	-14.5843
▁innovate	-14.5843
▁symptoms	-14.5844
▁urgently	-14.5844
▁disassociated	-14.5844
▁globally	-14.5845
▁princess	-14.5845
▁countered	-14.5845
▁commented	-14.5846
90	-14.5846
▁producer	-14.5846
▁expose	-14.5847
▁picket	-14.5848
▁badger	-14.585
▁influence	-14.585
▁rushing	-14.585
▁educated	-14.585
▁compromise	-14.5852
▁bake	-14.5853
▁stolen	-14.5853
▁poster	-14.5855
▁renewing	-14.5855
▁tron	-14.5857
▁consumed	-14.5858
▁hiding	-14.5859
▁ccc	-14.5861
▁flowing	-14.5861
▁juliana	-14.5862
▁infinite	-14.5865
▁aim	-14.587
ston	-14.587
▁newness	-14.5871
▁berman	-14.5874
▁pla	-14.5874
▁litter	-14.5877
▁wiser	-14.5877
▁inability	-14.5879
▁companion	-14.5879
▁ccr	-14.5883
▁geographical	-14.589
cou	-14.5891
▁luisa	-14.5892
▁iran	-14.5892
▁pcp	-14.5898
▁participated	-14.59
▁eliminated	-14.5908
▁fanatics	-14.5912
▁sur	-14.5913
▁pena	-14.5917
▁proceeded	-14.592
▁bitly	-14.5921
▁greening	-14.5929
▁oba	-14.593
▁grades	-14.5935
▁socal	-14.5935
ought	-14.5939
17	-14.594
▁meadows	-14.5948
▁towns	-14.5952
▁spice	-14.5955
▁sonic	-14.5958
▁continent	-14.5958
▁architects	-14.596
▁values	-14.5963
ota	-14.5963
▁workable	-14.5973
▁upwards	-14.5983
ual	-14.5989
box	-14.5991
▁minimized	-14.5992
▁mints	-14.6
▁sided	-14.6006
cci	-14.6006
▁respectful	-14.6009
del	-14.6012
sun	-14.6014
▁wages	-14.6017
nando	-14.6025
stein	-14.6029
▁roads	-14.603
▁corrections	-14.6036
▁pharma	-14.6038
desk	-14.6046
print	-14.6053
subscribe	-14.6056
▁aden	-14.606
shot	-14.6063
▁sy	-14.6064
will	-14.6073
▁earn	-14.6081
▁beard	-14.6082
roi	-14.6089
▁jud	-14.6098
logging	-14.6099
▁hy	-14.6104
▁evenly	-14.6104
▁firewalls	-14.6105
ele	-14.6105
▁productions	-14.6109
▁mcl	-14.6111
▁fam	-14.6114
ai	-14.6115
▁jaden	-14.6116
▁toast	-14.6119
▁threatening	-14.6122
▁tang	-14.6123
▁arguments	-14.6125
▁mindy	-14.613
▁beds	-14.6143
egan	-14.6144
▁layers	-14.6145
▁stale	-14.6148
▁tu	-14.6149
▁ecs	-14.6165
▁macro	-14.6172
▁dora	-14.6172
▁conditional	-14.6173
plan	-14.6177
rina	-14.6186
ech	-14.619
▁provinces	-14.6197
▁scares	-14.6197
▁seas	-14.6198
ound	-14.6226
▁har	-14.6229
▁oma	-14.623
▁interruptions	-14.6235
▁screws	-14.6254
▁pasta	-14.627
▁headaches	-14.6287
fan	-14.6288
▁erie	-14.63
▁bla	-14.6304
▁msn	-14.6316
▁min	-14.6324
nia	-14.6342
▁mus	-14.6372
▁brit	-14.6374
▁arises	-14.639
▁clarifications	-14.64
fe	-14.6401
▁captures	-14.6435
▁papers	-14.6442
rco	-14.6445
▁winters	-14.6453
▁lanes	-14.6457
ology	-14.647
▁traces	-14.6477
▁pilots	-14.6508
low	-14.6513
▁bags	-14.6546
▁uni	-14.6568
▁beeps	-14.6577
hr	-14.6589
▁exceptional	-14.659
reen	-14.6594
▁bites	-14.6597
▁qua	-14.6599
▁delivers	-14.6621
▁scoop	-14.6623
▁creator	-14.6648
▁emission	-14.6648
anna	-14.665
▁implication	-14.6653
ady	-14.6653
▁staple	-14.6655
▁appraiser	-14.6655
▁film	-14.6656
▁designer	-14.6657
▁megabyte	-14.666
▁skew	-14.6661
lean	-14.6666
▁sti	-14.6689
▁rela	-14.6703
▁rearrange	-14.6712
▁reconsider	-14.6725
▁mint	-14.6735
▁lori	-14.6737
▁homer	-14.6769
lissa	-14.677
▁bands	-14.6774
▁ethic	-14.6781
▁renews	-14.6788
var	-14.6789
▁medica	-14.6789
▁choirs	-14.6793
erable	-14.68
▁bria	-14.6813
row	-14.6814
▁specializ	-14.6814
▁addict	-14.6816
▁sep	-14.6822
ken	-14.6824
▁enclose	-14.6826
▁dedicate	-14.6827
▁alphabet	-14.6829
pay	-14.6829
bytes	-14.683
▁engag	-14.683
▁becaus	-14.6831
▁exhaust	-14.6832
▁spence	-14.6832
▁olive	-14.6832
▁irritat	-14.6833
athleen	-14.6833
▁bros	-14.6833
▁excessive	-14.6834
▁superhero	-14.6834
▁flawless	-14.6834
▁fergus	-14.6834
▁pivot	-14.6834
▁collective	-14.6834
dominant	-14.6834
▁agencies	-14.6834
▁album	-14.6834
▁alumni	-14.6834
▁arbor	-14.6834
▁arguing	-14.6834
▁arvin	-14.6834
▁backspace	-14.6834
▁biggie	-14.6834
▁blackwire	-14.6834
▁bryce	-14.6834
▁bulb	-14.6834
▁candace	-14.6834
▁carelinx	-14.6834
▁celeste	-14.6834
▁centric	-14.6834
▁charlena	-14.6834
▁chestnut	-14.6834
▁consistency	-14.6834
▁darius	-14.6834
▁diligent	-14.6834
▁discreet	-14.6834
▁dispense	-14.6834
▁distress	-14.6834
▁entities	-14.6834
▁errand	-14.6834
▁existence	-14.6834
▁exposure	-14.6834
▁floyd	-14.6834
▁frazier	-14.6834
▁fresno	-14.6834
▁fulfill	-14.6834
▁fundamental	-14.6834
▁genuine	-14.6834
▁gonzalez	-14.6834
▁gorgeous	-14.6834
▁hamburger	-14.6834
▁heinz	-14.6834
▁incorporation	-14.6834
▁instrument	-14.6834
▁jpeg	-14.6834
▁juggle	-14.6834
▁kennington	-14.6834
▁kishon	-14.6834
▁lizzie	-14.6834
▁marlowe	-14.6834
▁mccarthy	-14.6834
▁miguel	-14.6834
▁misconception	-14.6834
▁mohammad	-14.6834
▁monsour	-14.6834
▁museum	-14.6834
▁navigator	-14.6834
▁nginx	-14.6834
▁nursing	-14.6834
▁oprah	-14.6834
▁outpatient	-14.6834
▁parmenter	-14.6834
▁passenger	-14.6834
▁pioneer	-14.6834
▁placeholder	-14.6834
▁praising	-14.6834
▁propagate	-14.6834
▁purcell	-14.6834
▁queuing	-14.6834
▁rainbow	-14.6834
▁raphael	-14.6834
▁ravindra	-14.6834
▁redundancy	-14.6834
▁regulate	-14.6834
▁reliance	-14.6834
▁salvador	-14.6834
▁sandwich	-14.6834
▁sanjay	-14.6834
▁scatter	-14.6834
▁schafer	-14.6834
▁scholar	-14.6834
▁silhouette	-14.6834
▁slogan	-14.6834
▁societa	-14.6834
▁speculating	-14.6834
▁sproutloud	-14.6834
▁styling	-14.6834
▁terpene	-14.6834
▁testicle	-14.6834
▁ultrasound	-14.6834
▁underwrite	-14.6834
▁unfair	-14.6834
▁uniforce	-14.6834
▁universe	-14.6834
▁unreachable	-14.6834
▁verbiage	-14.6834
▁vintage	-14.6834
▁violence	-14.6834
▁watson	-14.6834
▁wisdom	-14.6834
▁wylie	-14.6834
▁wyoming	-14.6834
▁batteries	-14.6834
▁coincidence	-14.6834
▁dancing	-14.6834
▁jaime	-14.6834
▁judgment	-14.6834
▁maurice	-14.6834
▁mcdonald	-14.6834
▁muggy	-14.6834
▁plumber	-14.6834
▁salvo	-14.6834
▁steinberg	-14.6834
▁vermont	-14.6834
▁authenticating	-14.6834
▁donnelly	-14.6834
▁miniature	-14.6834
▁telus	-14.6834
▁blurry	-14.6834
▁rubric	-14.6834
▁trello	-14.6834
▁generous	-14.6834
▁legend	-14.6834
▁believable	-14.6834
▁breakfast	-14.6834
▁caching	-14.6834
▁drawback	-14.6834
▁kidney	-14.6834
▁mallory	-14.6834
▁overwhelmed	-14.6834
▁emory	-14.6834
▁edgar	-14.6834
▁spireon	-14.6834
▁stub	-14.6834
▁dockless	-14.6834
▁reformat	-14.6834
▁couch	-14.6834
▁rope	-14.6834
▁beacon	-14.6834
▁hugo	-14.6834
▁weissmann	-14.6834
▁gomez	-14.6834
▁hanson	-14.6834
▁jacksonville	-14.6834
▁supervision	-14.6834
▁busier	-14.6834
▁winner	-14.6834
▁clarisa	-14.6834
▁salable	-14.6834
▁ether	-14.6834
▁05	-14.6834
▁mileage	-14.6834
▁fender	-14.6834
▁thrilled	-14.6834
▁royce	-14.6834
▁roster	-14.6834
▁9:45	-14.6834
▁tbd	-14.6834
▁optum	-14.6834
quent	-14.6834
▁collier	-14.6834
▁harrington	-14.6834
▁informative	-14.6834
▁plummer	-14.6834
▁brody	-14.6834
▁davy	-14.6834
▁harlow	-14.6834
▁lois	-14.6834
▁dfw	-14.6834
▁paranoid	-14.6834
▁importance	-14.6834
▁poking	-14.6834
▁nalley	-14.6834
▁waco	-14.6834
▁gospel	-14.6834
▁liar	-14.6834
▁drum	-14.6835
▁gender	-14.6835
▁biased	-14.6835
▁portfolio	-14.6835
▁combat	-14.6835
▁backfill	-14.6835
▁37	-14.6835
▁peek	-14.6835
▁stain	-14.6835
▁poet	-14.6835
▁humid	-14.6835
▁jew	-14.6835
▁greenville	-14.6835
▁gloss	-14.6835
▁patrol	-14.6835
▁drama	-14.6835
▁shopper	-14.6835
▁clone	-14.6835
▁ortho	-14.6835
▁rover	-14.6835
▁landers	-14.6836
ock	-14.6836
▁rug	-14.6836
▁seasonal	-14.6836
▁covey	-14.6836
▁conner	-14.6836
▁disk	-14.6836
▁streak	-14.6836
▁depleted	-14.6836
▁coney	-14.6836
▁xero	-14.6836
▁$33	-14.6836
▁clearance	-14.6837
▁remark	-14.6837
▁sched	-14.6837
▁shining	-14.6837
▁diva	-14.6837
▁turnover	-14.6837
▁skycom	-14.6837
▁sucking	-14.6837
▁disrupting	-14.6838
▁suffering	-14.6838
▁beautifully	-14.6838
▁alarming	-14.6838
▁hacker	-14.6838
▁devino	-14.6838
▁amuse	-14.6838
▁bloody	-14.6838
▁workshop	-14.6839
▁kati	-14.6839
▁overhead	-14.6839
▁maki	-14.6839
▁nationally	-14.684
▁logically	-14.684
▁csp	-14.684
▁dispersed	-14.684
▁xray	-14.684
▁securely	-14.6841
▁treating	-14.6841
▁lengthy	-14.6841
▁quieter	-14.6841
▁bonded	-14.6841
▁slater	-14.6841
▁enablement	-14.6841
▁dressed	-14.6842
▁lifeline	-14.6842
▁fargo	-14.6842
▁voided	-14.6843
▁primer	-14.6844
▁cpo	-14.6844
▁scratchy	-14.6844
imply	-14.6845
▁moli	-14.6845
▁bonding	-14.6845
▁economic	-14.6846
▁$72	-14.6847
▁cin	-14.6849
▁highlighting	-14.685
▁patti	-14.685
ew	-14.6851
nut	-14.6851
▁laney	-14.6851
ada	-14.6852
▁feeding	-14.6852
enne	-14.6852
▁evolved	-14.6853
▁coolest	-14.6853
▁terran	-14.6853
▁compu	-14.6853
▁maintaining	-14.6853
▁persisting	-14.6854
▁takeover	-14.6854
▁slider	-14.6855
▁studying	-14.6855
▁tensions	-14.6855
▁morale	-14.6855
▁lj	-14.6856
▁lieu	-14.6857
▁rami	-14.6857
▁fang	-14.6858
▁apost	-14.686
▁promoted	-14.6861
▁ux	-14.6863
▁keychains	-14.6863
▁renovations	-14.6863
▁magn	-14.6864
▁colony	-14.6864
▁loader	-14.6866
▁clash	-14.6867
▁movies	-14.687
▁accumulate	-14.6871
▁reporter	-14.6872
▁dolly	-14.6878
▁ox	-14.6878
▁dispatching	-14.6882
▁scientists	-14.6883
▁religious	-14.6884
▁instill	-14.6886
▁planted	-14.689
▁composed	-14.6892
▁kk	-14.6892
▁foreman	-14.6899
▁kb	-14.6901
▁upstate	-14.6905
▁explored	-14.6907
▁wider	-14.6907
sale	-14.6907
▁hoc	-14.6911
▁crow	-14.6916
▁signaling	-14.6917
▁whereby	-14.6919
▁sila	-14.692
▁greatest	-14.6921
▁mul	-14.6921
▁ove	-14.6922
▁shak	-14.6925
▁avia	-14.6926
▁honesty	-14.693
▁pastors	-14.6931
▁arman	-14.694
▁kobe	-14.6943
▁riding	-14.6945
▁kip	-14.6948
ani	-14.695
▁gram	-14.6953
▁mecha	-14.6953
▁herman	-14.6955
▁filler	-14.6955
▁amateurs	-14.696
start	-14.6961
▁stranger	-14.6969
▁bran	-14.6969
▁survive	-14.6971
▁descent	-14.6972
▁finaliz	-14.6976
▁avanti	-14.6976
▁feeds	-14.6993
▁mci	-14.6998
bie	-14.6999
▁warrants	-14.6999
boro	-14.7002
pel	-14.7005
▁implications	-14.7019
▁cola	-14.7033
▁lover	-14.7039
▁preceden	-14.7053
mine	-14.7055
cc	-14.7065
▁que	-14.7066
elect	-14.7068
emo	-14.7073
▁stairs	-14.7078
▁brew	-14.7083
cid	-14.709
▁dts	-14.7093
33	-14.7114
umble	-14.7122
▁commas	-14.7126
mel	-14.7132
▁requester	-14.7132
owed	-14.7146
▁offerings	-14.7149
flow	-14.7154
▁74	-14.7158
commerce	-14.7158
of	-14.7159
hotmail	-14.7165
damn	-14.7168
school	-14.7169
worth	-14.717
▁predicti	-14.7174
▁qw	-14.7186
some	-14.7189
▁mont	-14.7189
king	-14.7203
▁willie	-14.7203
rgen	-14.7209
▁cms	-14.7209
▁hubs	-14.721
▁attain	-14.7215
here	-14.7229
safe	-14.7232
▁navigated	-14.7244
▁vitals	-14.7253
adam	-14.7264
onder	-14.7266
now	-14.7278
ini	-14.7288
▁chips	-14.7318
▁dumps	-14.7319
▁dire	-14.7323
eren	-14.7323
▁wheels	-14.7339
late	-14.7343
dle	-14.7344
▁jun	-14.735
▁ov	-14.7355
▁ez	-14.7374
shaw	-14.7381
yo	-14.7381
▁sock	-14.7382
▁temps	-14.7388
▁dec	-14.7406
don	-14.7407
tty	-14.7417
▁sheer	-14.7423
▁97	-14.7437
lated	-14.744
ub	-14.7457
▁avi	-14.7463
eas	-14.7466
▁firstly	-14.7487
how	-14.7505
▁fig	-14.7534
rri	-14.7536
utter	-14.7542
ega	-14.7543
▁rom	-14.7558
▁cass	-14.7559
ough	-14.7564
▁fla	-14.7565
asha	-14.7574
tta	-14.7587
▁abandons	-14.7607
▁defer	-14.7619
dia	-14.7632
:24	-14.764
▁filipinos	-14.7649
▁ky	-14.766
▁manda	-14.768
quality	-14.7683
lian	-14.7693
lc	-14.7703
precedent	-14.7706
▁bullets	-14.7713
▁rog	-14.7722
bus	-14.7736
▁conflicts	-14.7749
rk	-14.775
▁signer	-14.7753
▁nichol	-14.7759
▁fluctuate	-14.7761
▁warrant	-14.7762
ified	-14.7765
▁programmer	-14.7767
▁regulation	-14.7767
▁veteran	-14.7768
▁arrives	-14.7777
bil	-14.7788
▁offend	-14.7802
mation	-14.7804
▁lyn	-14.7813
▁tea	-14.7819
ification	-14.7819
▁upward	-14.7822
uro	-14.7829
43	-14.7832
▁races	-14.7833
ther	-14.7835
▁physicians	-14.7841
▁alec	-14.7841
ollo	-14.7847
unt	-14.7852
ggy	-14.7854
▁resist	-14.7882
aiming	-14.7887
laws	-14.789
▁pu	-14.7893
▁aris	-14.7898
▁seiz	-14.79
▁announcements	-14.7905
nies	-14.7913
▁stole	-14.7921
▁concur	-14.7922
▁chronic	-14.7924
▁gero	-14.7924
▁retriev	-14.7929
▁northeast	-14.7934
▁refine	-14.7938
▁anticipate	-14.7938
▁convince	-14.7938
▁rever	-14.7938
▁groom	-14.7939
▁mob	-14.7939
runk	-14.7941
▁discontinu	-14.7941
▁optimize	-14.7942
▁clair	-14.7942
▁stella	-14.7943
▁ceci	-14.7943
▁googl	-14.7943
hopped	-14.7944
▁destin	-14.7944
▁okeydoke	-14.7944
▁overlook	-14.7944
▁steer	-14.7944
enberg	-14.7944
▁prison	-14.7944
▁bias	-14.7944
▁kennet	-14.7945
▁steep	-14.7945
▁subsequent	-14.7945
▁burk	-14.7945
▁plead	-14.7945
▁interchange	-14.7945
▁rectang	-14.7945
▁peanut	-14.7945
▁fabric	-14.7945
▁mccann	-14.7945
▁variance	-14.7945
numeral	-14.7945
requisite	-14.7945
rizza	-14.7945
▁administrate	-14.7945
▁adwords	-14.7945
▁aggressive	-14.7945
▁alcohol	-14.7945
▁alfonso	-14.7945
▁aliyah	-14.7945
▁appreciation	-14.7945
▁archangel	-14.7945
▁aspirin	-14.7945
▁bachelor	-14.7945
▁blob	-14.7945
▁bluebird	-14.7945
▁brundage	-14.7945
▁bunny	-14.7945
▁calendly	-14.7945
▁ceatus	-14.7945
▁chino	-14.7945
▁cirrus	-14.7945
▁clunky	-14.7945
▁competing	-14.7945
▁congrats	-14.7945
▁contradict	-14.7945
▁counterpart	-14.7945
▁courteous	-14.7945
▁crappy	-14.7945
▁decibel	-14.7945
▁densify	-14.7945
▁diagram	-14.7945
▁eligibility	-14.7945
▁engenuity	-14.7945
▁escrow	-14.7945
▁faculty	-14.7945
▁fingerprint	-14.7945
▁gitto	-14.7945
▁gynecologists	-14.7945
▁headwaters	-14.7945
▁innocent	-14.7945
▁kairos	-14.7945
▁kelvin	-14.7945
▁laundry	-14.7945
▁leisure	-14.7945
▁limbird	-14.7945
▁loyalty	-14.7945
▁marriott	-14.7945
▁mechanism	-14.7945
▁merchandising	-14.7945
▁millimeter	-14.7945
▁mucky	-14.7945
▁netflix	-14.7945
▁nevertheless	-14.7945
▁nonpayment	-14.7945
▁nuisance	-14.7945
▁octopus	-14.7945
▁palace	-14.7945
▁pfizer	-14.7945
▁platinum	-14.7945
▁proximity	-14.7945
▁renaissance	-14.7945
▁rfp	-14.7945
▁separation	-14.7945
▁shovel	-14.7945
▁snag	-14.7945
▁spokane	-14.7945
▁squeak	-14.7945
▁stafford	-14.7945
▁strata	-14.7945
▁sushi	-14.7945
▁sykes	-14.7945
▁synchronization	-14.7945
▁syntax	-14.7945
▁terrence	-14.7945
▁terrified	-14.7945
▁thrice	-14.7945
▁tongue	-14.7945
▁unnecessarily	-14.7945
▁unprofessional	-14.7945
▁vacuum	-14.7945
▁valentina	-14.7945
▁weaver	-14.7945
▁yvette	-14.7945
▁continuity	-14.7945
▁groceries	-14.7945
▁monarch	-14.7945
▁nielsen	-14.7945
▁overdue	-14.7945
▁spiegel	-14.7945
▁arjan	-14.7945
▁bezel	-14.7945
▁josie	-14.7945
▁nigel	-14.7945
▁testament	-14.7945
▁bernie	-14.7945
▁cairo	-14.7945
▁destruction	-14.7945
▁lafayette	-14.7945
▁mfg	-14.7945
▁pension	-14.7945
▁polite	-14.7945
▁roasters	-14.7945
▁soccer	-14.7945
▁tacoma	-14.7945
▁doubletree	-14.7945
▁insistent	-14.7945
▁tiring	-14.7945
▁yoni	-14.7945
▁denison	-14.7945
▁protein	-14.7945
ceptive	-14.7945
▁contribution	-14.7945
▁chapel	-14.7945
▁lugs	-14.7945
▁antique	-14.7945
▁hagan	-14.7945
▁programmable	-14.7945
▁stumble	-14.7945
▁mclean	-14.7945
▁abandonment	-14.7945
▁bedwell	-14.7945
▁bogus	-14.7945
▁swim	-14.7945
▁denton	-14.7945
▁abruptly	-14.7945
▁compact	-14.7945
▁bideo	-14.7945
▁carmax	-14.7945
▁credo	-14.7945
▁nicholson	-14.7945
▁flock	-14.7945
▁hillary	-14.7945
versatube	-14.7945
▁beater	-14.7945
▁intentional	-14.7945
▁lindo	-14.7945
▁kimmy	-14.7945
▁galen	-14.7945
▁mckee	-14.7945
▁dorian	-14.7945
▁joking	-14.7945
▁diaz	-14.7945
▁carbon	-14.7945
▁norway	-14.7945
▁vivi	-14.7945
aviation	-14.7945
▁disco	-14.7945
▁kwon	-14.7945
▁seville	-14.7945
▁bradford	-14.7946
▁grin	-14.7946
▁tailored	-14.7946
▁castable	-14.7946
▁curb	-14.7946
▁redwood	-14.7946
▁hicks	-14.7946
▁rowdy	-14.7946
▁heroes	-14.7946
▁entirety	-14.7946
▁burst	-14.7946
▁restroom	-14.7946
▁maple	-14.7946
▁micah	-14.7946
▁tripping	-14.7946
▁replication	-14.7946
▁onyx	-14.7946
▁slowness	-14.7946
▁padding	-14.7946
▁insult	-14.7946
▁admitted	-14.7946
▁casually	-14.7946
▁fiverr	-14.7946
▁melted	-14.7946
▁delane	-14.7946
▁folded	-14.7946
▁reuss	-14.7946
▁tessa	-14.7946
▁somalia	-14.7946
▁54	-14.7946
▁monty	-14.7946
▁revel	-14.7946
▁barrel	-14.7947
▁calmer	-14.7947
▁itunes	-14.7947
▁smiley	-14.7947
▁unle	-14.7947
▁resin	-14.7947
▁wheeler	-14.7947
existent	-14.7947
▁reflection	-14.7947
▁vance	-14.7947
▁landow	-14.7948
▁crunching	-14.7948
▁delia	-14.7948
▁lerma	-14.7948
▁cracking	-14.7948
▁lola	-14.7948
▁coated	-14.7948
▁rake	-14.7948
▁workforce	-14.7948
▁bland	-14.7948
▁revive	-14.7948
▁ticker	-14.7948
▁oka	-14.7948
▁christie	-14.7948
▁dax	-14.7949
▁blanket	-14.7949
▁mounted	-14.7949
▁consumers	-14.7949
▁octa	-14.7949
▁beast	-14.7949
▁stormy	-14.7949
▁breathing	-14.7949
▁personalization	-14.7949
▁chatter	-14.795
▁gist	-14.795
▁jacket	-14.795
▁relieved	-14.7951
▁glow	-14.7951
▁duvall	-14.7951
▁slap	-14.7951
▁linger	-14.7951
▁dicky	-14.7951
▁mining	-14.7951
▁fishy	-14.7952
▁kiss	-14.7952
▁fallen	-14.7952
▁refined	-14.7952
▁advisory	-14.7953
▁milk	-14.7953
▁dice	-14.7953
▁probing	-14.7953
▁trunking	-14.7953
▁leaking	-14.7953
▁leftover	-14.7953
▁marcy	-14.7953
appointed	-14.7953
▁dusting	-14.7954
▁sanus	-14.7954
▁deer	-14.7954
▁patched	-14.7954
▁niche	-14.7954
▁pants	-14.7954
▁listeners	-14.7955
▁christi	-14.7955
▁learner	-14.7956
▁obstetricians	-14.7957
▁workday	-14.7958
▁publicly	-14.7958
▁pointless	-14.7959
▁apologiz	-14.7959
▁dex	-14.7959
▁crate	-14.7959
▁dressing	-14.7959
▁mole	-14.796
▁trickle	-14.7962
▁gang	-14.7962
▁flashed	-14.7962
▁kindness	-14.7962
▁dissipate	-14.7963
▁outwork	-14.7964
rought	-14.7966
▁pia	-14.7969
▁segments	-14.797
▁jumi	-14.7971
▁dermott	-14.7972
▁jovit	-14.7972
▁unlocking	-14.7972
▁peel	-14.7972
▁lcd	-14.7973
▁discontinued	-14.7974
▁pb	-14.7975
▁msp	-14.7975
▁warming	-14.7975
not	-14.7975
cho	-14.7976
▁gable	-14.7976
▁dover	-14.7982
▁mica	-14.7983
▁moss	-14.7986
▁labeling	-14.7986
verge	-14.7988
rac	-14.7988
▁meyer	-14.7989
▁bender	-14.7989
▁macon	-14.799
▁byron	-14.7991
affe	-14.7993
▁chor	-14.7996
▁mandate	-14.7997
▁interpretation	-14.8002
▁jewelry	-14.8002
▁dentistry	-14.8002
▁comic	-14.8003
▁speedy	-14.8005
▁cashing	-14.8005
▁willow	-14.8008
▁dea	-14.8015
▁banker	-14.8016
▁canning	-14.8021
▁coatings	-14.8021
▁milliseconds	-14.8021
▁challenged	-14.8022
▁thi	-14.8025
▁adp	-14.8028
▁beef	-14.8041
▁candle	-14.8042
▁pander	-14.8043
ryl	-14.8043
ments	-14.8045
▁jon	-14.8046
cura	-14.8047
▁arson	-14.8054
▁queens	-14.8058
▁merri	-14.8072
▁lowering	-14.8074
▁makers	-14.8079
▁creamer	-14.8083
▁snippets	-14.8087
▁delaying	-14.8087
enali	-14.809
work	-14.8092
▁tds	-14.8094
tera	-14.8095
:5	-14.8099
▁ladder	-14.81
▁gaps	-14.8101
▁pac	-14.8112
▁puzzle	-14.8115
▁rms	-14.8124
fus	-14.813
▁jame	-14.8131
▁oreo	-14.8137
▁spc	-14.8137
▁tempt	-14.8149
▁designers	-14.8154
gating	-14.8156
:	-14.8158
▁sk	-14.8159
natively	-14.8162
▁fate	-14.8162
▁goodman	-14.8165
still	-14.8167
▁lens	-14.8174
▁rome	-14.8181
ink	-14.8188
angelo	-14.819
▁drinks	-14.8191
▁organ	-14.8198
nard	-14.8199
▁39	-14.8206
lied	-14.8208
andy	-14.8216
▁builders	-14.8221
▁seeds	-14.8226
win	-14.8233
▁pip	-14.8241
▁surgeons	-14.8242
▁ecom	-14.8252
vac	-14.8258
ato	-14.8265
nte	-14.8271
for	-14.8273
cent	-14.8299
▁lions	-14.831
▁grouped	-14.8313
gate	-14.8318
ability	-14.8325
▁execs	-14.8332
▁cages	-14.8332
▁cracks	-14.8332
▁bows	-14.8341
▁kia	-14.8349
▁lea	-14.8374
▁chimes	-14.8377
horn	-14.8379
▁cpm	-14.8384
99	-14.8389
▁toria	-14.839
stage	-14.8392
cer	-14.8396
evaluate	-14.8396
locating	-14.8402
mark	-14.8412
union	-14.8413
conference	-14.8414
guard	-14.8415
held	-14.8416
water	-14.8416
health	-14.8416
quest	-14.8416
bridge	-14.8418
case	-14.8419
piece	-14.8419
finished	-14.8419
working	-14.842
▁shades	-14.8422
▁flowers	-14.8424
west	-14.8425
avis	-14.843
try	-14.8432
life	-14.8442
rose	-14.845
▁guns	-14.8469
kle	-14.8476
tors	-14.848
▁slim	-14.8481
▁insiders	-14.8492
▁canary	-14.8495
riel	-14.8496
ester	-14.8514
▁accountants	-14.8545
▁eve	-14.8553
▁pun	-14.8557
▁seals	-14.8561
▁lara	-14.8561
▁andress	-14.8563
▁sands	-14.859
yman	-14.8593
lum	-14.8621
▁skis	-14.8629
▁notion	-14.8646
▁birds	-14.8649
▁diamonds	-14.8654
▁polls	-14.8678
▁eno	-14.8687
▁devi	-14.8702
lea	-14.8711
▁belle	-14.8722
umber	-14.8722
▁sparks	-14.8749
▁moral	-14.8753
▁linde	-14.8768
▁gat	-14.8773
any	-14.8785
▁outlets	-14.8795
:32	-14.8799
ky	-14.8823
rman	-14.883
▁halls	-14.8834
▁reba	-14.8849
▁oc	-14.885
▁mechanic	-14.8873
▁blogs	-14.8886
▁agreements	-14.8887
bel	-14.8897
▁das	-14.8904
▁islands	-14.8913
▁kir	-14.8927
▁freeing	-14.8932
ose	-14.8959
▁ministers	-14.8964
xon	-14.8964
▁tur	-14.8973
▁dun	-14.8974
▁attract	-14.8975
▁habitat	-14.8979
▁render	-14.8994
arity	-14.9
▁apr	-14.901
▁payables	-14.9012
▁prize	-14.9015
▁abi	-14.9017
nda	-14.902
▁parameter	-14.9022
jos	-14.9027
ote	-14.9033
▁bur	-14.9034
eco	-14.9035
▁fears	-14.9036
stems	-14.904
asting	-14.9051
▁hol	-14.9074
▁rosen	-14.9078
▁carlo	-14.9083
▁widgets	-14.911
ula	-14.9114
▁historic	-14.9116
▁geographic	-14.9117
ali	-14.9119
▁median	-14.9123
▁cov	-14.9126
▁stake	-14.9128
▁rabbi	-14.9135
pp	-14.9166
anger	-14.9166
▁terra	-14.9171
▁presto	-14.9172
ku	-14.9179
▁concentrate	-14.9188
▁injure	-14.9189
▁disperse	-14.919
▁eliminat	-14.9191
▁educat	-14.9191
▁advocat	-14.9192
▁nadi	-14.9192
▁alta	-14.9193
latin	-14.9193
▁mislead	-14.9194
▁bleed	-14.9194
▁lugg	-14.9194
▁distort	-14.9194
▁poppin	-14.9194
▁rebuild	-14.9194
▁11:2	-14.9195
▁absent	-14.9195
olympic	-14.9195
▁drip	-14.9195
▁bamboo	-14.9195
▁cylinder	-14.9195
▁entrepreneur	-14.9195
▁hydro	-14.9195
▁rhyme	-14.9195
▁swab	-14.9195
saunders	-14.9195
synergy	-14.9195
▁antenna	-14.9195
▁apprentice	-14.9195
▁baxter	-14.9195
▁blanton	-14.9195
▁bosch	-14.9195
▁caffeine	-14.9195
▁chocolate	-14.9195
▁cigar	-14.9195
▁clifton	-14.9195
▁closure	-14.9195
▁cocoa	-14.9195
▁cormier	-14.9195
▁crawford	-14.9195
▁davita	-14.9195
▁deacon	-14.9195
▁discrepancies	-14.9195
▁eileen	-14.9195
▁equation	-14.9195
▁featuring	-14.9195
▁fletcher	-14.9195
▁fraction	-14.9195
▁govern	-14.9195
▁grecian	-14.9195
▁happily	-14.9195
▁hunch	-14.9195
▁ignite	-14.9195
▁impatient	-14.9195
▁inconsistency	-14.9195
▁jorge	-14.9195
▁kathrine	-14.9195
▁kennesaw	-14.9195
▁liberal	-14.9195
▁lounge	-14.9195
▁luxembourg	-14.9195
▁macdonald	-14.9195
▁maneuver	-14.9195
▁maternity	-14.9195
▁maverick	-14.9195
▁mckinney	-14.9195
▁militia	-14.9195
▁miscellaneous	-14.9195
▁monteleone	-14.9195
▁mosquito	-14.9195
▁murray	-14.9195
▁necessity	-14.9195
▁nickname	-14.9195
▁offensive	-14.9195
▁offshore	-14.9195
▁ottoman	-14.9195
▁patterson	-14.9195
▁perception	-14.9195
▁playbook	-14.9195
▁prematurely	-14.9195
▁proficient	-14.9195
▁prominent	-14.9195
▁psychology	-14.9195
▁remodel	-14.9195
▁replenish	-14.9195
▁reputation	-14.9195
▁rifle	-14.9195
▁salvatore	-14.9195
▁sampson	-14.9195
▁savage	-14.9195
▁scientific	-14.9195
▁sinclair	-14.9195
▁skeptic	-14.9195
▁spatial	-14.9195
▁structural	-14.9195
▁substitute	-14.9195
▁taiwan	-14.9195
▁talya	-14.9195
▁temora	-14.9195
▁testimony	-14.9195
▁thirties	-14.9195
▁toffee	-14.9195
▁translator	-14.9195
▁tulsa	-14.9195
▁twelfth	-14.9195
▁ultra	-14.9195
▁utilization	-14.9195
▁vitamin	-14.9195
▁xcellence	-14.9195
▁zenabis	-14.9195
dynamite	-14.9195
▁advent	-14.9195
▁alleviate	-14.9195
▁cited	-14.9195
▁concede	-14.9195
▁creature	-14.9195
▁demonstration	-14.9195
▁disrespectful	-14.9195
▁faint	-14.9195
▁grammy	-14.9195
▁interbank	-14.9195
▁optimization	-14.9195
▁pecan	-14.9195
▁precision	-14.9195
▁shoretel	-14.9195
▁snapshot	-14.9195
▁vibration	-14.9195
emphasize	-14.9195
▁abundan	-14.9195
▁bronx	-14.9195
▁collation	-14.9195
▁cosmo	-14.9195
▁dispel	-14.9195
▁eloise	-14.9195
▁jeep	-14.9195
▁jomar	-14.9195
▁keisha	-14.9195
▁melrose	-14.9195
▁shrek	-14.9195
▁stagger	-14.9195
▁upkeep	-14.9195
▁armatic	-14.9195
▁buried	-14.9195
▁copier	-14.9195
▁corruption	-14.9195
▁fonda	-14.9195
▁jewish	-14.9195
▁jolene	-14.9195
▁merchandisers	-14.9195
▁nampa	-14.9195
▁recession	-14.9195
▁rhett	-14.9195
▁sermo	-14.9195
▁truthfully	-14.9195
▁cursing	-14.9195
▁oakland	-14.9195
▁oops	-14.9195
▁osha	-14.9195
▁voltage	-14.9195
▁bellamy	-14.9195
▁tino	-14.9195
▁thermal	-14.9195
▁trauma	-14.9195
▁strain	-14.9195
▁debian	-14.9195
▁subsidiary	-14.9195
▁banish	-14.9195
▁elmer	-14.9195
▁shun	-14.9195
▁angelina	-14.9195
▁caitlyn	-14.9195
▁devick	-14.9195
▁batting	-14.9195
▁failsafe	-14.9195
▁ajay	-14.9195
▁landess	-14.9195
▁medina	-14.9195
▁retirement	-14.9195
▁burnham	-14.9195
▁examine	-14.9195
▁infected	-14.9195
▁inverter	-14.9195
▁glenda	-14.9195
▁princeton	-14.9195
▁10:15	-14.9195
▁kimmel	-14.9195
▁laila	-14.9195
▁roseville	-14.9195
▁conferred	-14.9195
▁inventory	-14.9195
▁converge	-14.9195
▁corella	-14.9195
▁owl	-14.9195
▁blaine	-14.9195
▁grandma	-14.9195
▁bolton	-14.9195
▁smash	-14.9195
▁timmy	-14.9195
▁lackey	-14.9195
▁mckay	-14.9195
▁plaid	-14.9195
▁04	-14.9195
▁midway	-14.9195
▁bethel	-14.9195
▁hyatt	-14.9195
▁vape	-14.9195
▁11:45	-14.9195
▁hemming	-14.9195
▁rollout	-14.9195
▁acme	-14.9195
▁arches	-14.9195
▁rafi	-14.9195
▁rockland	-14.9195
▁barrington	-14.9195
▁riddle	-14.9195
▁ashton	-14.9195
▁fascinating	-14.9195
▁implies	-14.9196
▁pathway	-14.9196
▁preacher	-14.9196
▁spotify	-14.9196
▁shopify	-14.9196
▁customizing	-14.9196
▁$37	-14.9196
▁chairman	-14.9196
▁monet	-14.9196
▁rankin	-14.9196
▁settling	-14.9196
▁oval	-14.9196
▁desperately	-14.9196
▁shark	-14.9196
▁fanta	-14.9196
▁mosa	-14.9196
▁audra	-14.9196
▁$31	-14.9196
▁bubbly	-14.9196
▁digest	-14.9196
▁dumper	-14.9196
▁fridge	-14.9196
▁micek	-14.9196
▁blip	-14.9196
▁47	-14.9196
▁messick	-14.9196
▁rtp	-14.9196
▁49	-14.9196
▁jefferson	-14.9196
▁terrio	-14.9196
laughlin	-14.9196
▁minh	-14.9196
▁bower	-14.9196
▁rachelle	-14.9196
▁dizzy	-14.9196
▁frantic	-14.9196
▁lorena	-14.9196
▁coxon	-14.9196
▁earned	-14.9196
▁danial	-14.9196
▁greer	-14.9197
▁khan	-14.9197
▁suv	-14.9197
▁massey	-14.9197
▁flicker	-14.9197
▁shaking	-14.9197
▁patches	-14.9197
▁aliases	-14.9197
▁skate	-14.9197
▁crave	-14.9197
▁destroyed	-14.9197
▁poured	-14.9197
▁necker	-14.9197
▁buffering	-14.9197
▁psyche	-14.9197
▁cade	-14.9197
▁shutdown	-14.9197
▁rab	-14.9197
▁opie	-14.9198
▁pvc	-14.9198
▁toilet	-14.9198
▁bashing	-14.9198
▁appealing	-14.9198
▁sealed	-14.9198
▁imprint	-14.9198
▁countless	-14.9198
▁ashes	-14.9199
▁wrecking	-14.9199
▁aging	-14.9199
▁gardener	-14.9199
▁organa	-14.9199
▁alternatively	-14.9199
▁katia	-14.9199
▁inputted	-14.9199
▁barker	-14.9199
▁richer	-14.9199
▁lapse	-14.9199
▁dalia	-14.9199
▁pumped	-14.92
▁mentoring	-14.92
▁93	-14.92
▁supervise	-14.92
aco	-14.92
▁banyan	-14.92
▁smallest	-14.92
▁seminar	-14.92
▁milly	-14.92
▁lally	-14.9201
40	-14.9201
▁dresser	-14.9201
▁allowance	-14.9201
▁dryer	-14.9202
▁formally	-14.9202
▁bbc	-14.9202
▁norwe	-14.9202
▁gps	-14.9203
▁carver	-14.9203
▁landon	-14.9203
▁desiree	-14.9203
▁misha	-14.9203
▁comply	-14.9203
▁$53	-14.9204
▁comeback	-14.9204
▁deploying	-14.9204
▁commander	-14.9204
▁cannon	-14.9205
▁manta	-14.9205
▁elmore	-14.9205
▁newbie	-14.9205
▁turco	-14.9205
▁sonya	-14.9206
▁texture	-14.9206
witch	-14.9206
▁semen	-14.9206
▁headline	-14.9206
▁piss	-14.9206
▁quake	-14.9207
▁farley	-14.9207
▁concluded	-14.9207
▁dams	-14.9207
▁tease	-14.9208
▁repaired	-14.9208
▁consolidated	-14.9209
▁elevated	-14.9209
▁pitching	-14.921
▁lilian	-14.921
▁privately	-14.921
▁lpl	-14.9211
▁scratching	-14.9212
▁cpi	-14.9212
▁reenter	-14.9213
▁punching	-14.9213
▁versed	-14.9214
▁auditing	-14.9215
▁roden	-14.9215
▁earl	-14.9215
▁revised	-14.9215
▁hardline	-14.9215
▁demanding	-14.9215
▁measured	-14.9216
▁sixtie	-14.9216
92	-14.9217
▁translated	-14.9217
chronicle	-14.9219
▁marketer	-14.922
▁nighttime	-14.922
▁idling	-14.922
▁factoring	-14.9221
▁lago	-14.9224
▁resale	-14.9224
▁kra	-14.9224
lau	-14.9225
▁cleanup	-14.9226
▁relaunching	-14.9227
▁erick	-14.9228
▁pistons	-14.9231
spite	-14.9231
▁civilians	-14.9233
▁russ	-14.9234
▁laker	-14.9235
▁wings	-14.9237
▁sled	-14.9239
▁simone	-14.924
▁fiddle	-14.924
▁reconfigured	-14.924
:2	-14.9241
▁attaching	-14.9244
▁pinion	-14.9245
list	-14.9247
59	-14.9252
iterate	-14.9252
▁peaceful	-14.9254
can	-14.9255
▁underway	-14.9255
▁consequences	-14.9257
▁kudos	-14.9257
▁enhancements	-14.9257
▁aesthetic	-14.9259
▁malibu	-14.9259
▁mariah	-14.9264
nev	-14.9264
▁kno	-14.9266
▁setter	-14.9275
meridian	-14.9277
▁gabriela	-14.9278
▁remo	-14.9279
ack	-14.9283
▁volt	-14.9286
▁maximiz	-14.9286
▁marcell	-14.9295
uring	-14.9297
▁backside	-14.9298
▁donut	-14.9298
▁flo	-14.9301
bit	-14.9302
▁airy	-14.9307
▁correlate	-14.9308
▁evict	-14.9317
▁objecti	-14.9318
oma	-14.932
▁itemize	-14.9326
▁immobile	-14.9329
▁sprinting	-14.9334
▁garre	-14.9336
▁boast	-14.9338
pad	-14.9349
▁chew	-14.9354
▁koch	-14.9356
▁charm	-14.9358
▁trainers	-14.9358
▁formed	-14.9358
▁pci	-14.9359
▁whi	-14.9368
mia	-14.9372
▁classifie	-14.9373
▁retrieved	-14.9373
bell	-14.9374
ext	-14.9378
▁stakes	-14.9381
▁proofing	-14.939
▁daniela	-14.9396
port	-14.9398
▁fluctuates	-14.9408
ami	-14.9414
tiv	-14.9418
pher	-14.9437
▁andrey	-14.9442
ching	-14.9449
▁vero	-14.9451
▁adv	-14.9451
▁sorting	-14.9452
▁academics	-14.9458
▁gab	-14.9461
gging	-14.9473
▁lowe	-14.9481
▁soaking	-14.9489
use	-14.949
▁wars	-14.9505
▁lex	-14.9513
orde	-14.9513
ington	-14.952
itz	-14.9522
▁appliances	-14.9535
▁breeders	-14.9535
een	-14.954
▁familiarize	-14.9543
▁scen	-14.9558
▁suppliers	-14.9561
sizing	-14.9571
▁rat	-14.9578
▁fra	-14.959
erge	-14.9603
▁threats	-14.9612
▁overlays	-14.9612
▁bol	-14.9621
fully	-14.9626
eb	-14.9634
▁1:2	-14.964
obo	-14.9641
ending	-14.9642
rim	-14.9651
worker	-14.9662
▁9:1	-14.9664
▁pixels	-14.9664
nfer	-14.9665
▁noel	-14.9666
▁growl	-14.9667
▁ipod	-14.967
rage	-14.969
mond	-14.9691
etic	-14.9699
▁12:4	-14.9707
nik	-14.9723
▁alan	-14.9728
▁ei	-14.9743
▁violat	-14.975
▁adults	-14.9769
ants	-14.9771
▁abb	-14.9776
35	-14.9777
load	-14.9787
▁citizens	-14.9795
ppy	-14.9805
97	-14.9805
72	-14.9828
▁mills	-14.9836
▁irate	-14.9836
born	-14.9838
aol	-14.984
zealand	-14.9844
track	-14.9847
trial	-14.9848
▁coats	-14.9848
▁lenders	-14.9848
soft	-14.9849
host	-14.9851
play	-14.9861
▁tanks	-14.9875
yard	-14.9875
frame	-14.9878
corp	-14.9881
bon	-14.9889
holding	-14.9907
▁wil	-14.991
zy	-14.9918
lead	-14.9926
right	-14.9936
▁tiller	-14.994
▁environmental	-14.9953
▁shakes	-14.9953
▁saver	-14.9966
get	-14.9973
run	-14.9986
vera	-14.9988
▁romano	-14.9995
▁pri	-15.0015
strom	-15.0025
rier	-15.0032
aki	-15.0043
seen	-15.0044
page	-15.0049
▁gals	-15.006
eek	-15.0064
cus	-15.0076
matic	-15.008
lv	-15.0106
▁sensors	-15.0118
top	-15.0123
iffy	-15.013
putting	-15.0136
▁circulat	-15.0155
sales	-15.016
▁pap	-15.0184
pers	-15.0212
ply	-15.0218
▁joints	-15.023
▁abo	-15.0251
▁eggs	-15.0256
▁3:2	-15.0257
▁mali	-15.0278
▁carte	-15.0306
uber	-15.031
▁ava	-15.0312
▁laps	-15.0363
▁selective	-15.0365
ari	-15.0367
▁cafes	-15.0368
uk	-15.0371
▁attest	-15.0375
gon	-15.0387
tered	-15.0399
uff	-15.0418
▁cardi	-15.0424
▁fu	-15.0431
▁bodie	-15.0438
▁snippet	-15.0441
▁amateur	-15.0442
▁meadow	-15.0443
▁increment	-15.0447
▁trainer	-15.0447
▁collin	-15.0448
▁conduc	-15.0449
eral	-15.0473
▁dug	-15.0477
▁pol	-15.0481
bby	-15.0481
▁flop	-15.0511
▁pursu	-15.0515
▁audi	-15.0521
▁marcel	-15.0522
esco	-15.0541
ov	-15.0551
▁fol	-15.0551
aid	-15.0552
otted	-15.0555
▁emit	-15.0563
▁demi	-15.0567
zer	-15.0572
bile	-15.0574
▁appoint	-15.059
▁accommodat	-15.0595
▁colombia	-15.06
ivity	-15.0604
▁diff	-15.0608
azz	-15.0611
▁mara	-15.0614
▁relieve	-15.0616
▁qualifie	-15.0617
ught	-15.0617
▁supervis	-15.0618
▁degrade	-15.0618
▁felici	-15.0619
▁involv	-15.0619
ruck	-15.062
▁duplicat	-15.062
▁emil	-15.0621
▁intercept	-15.0622
▁duct	-15.0622
▁limb	-15.0622
▁hoard	-15.0622
▁impair	-15.0623
▁arrest	-15.0623
▁sustain	-15.0623
▁tailor	-15.0623
▁squirrel	-15.0623
▁reef	-15.0623
gestion	-15.0623
effie	-15.0624
▁intellect	-15.0624
▁optimistic	-15.0624
decimal	-15.0624
immune	-15.0624
rimenta	-15.0624
▁absurd	-15.0624
▁affair	-15.0624
▁aggression	-15.0624
▁aledade	-15.0624
▁alonzo	-15.0624
▁alvarez	-15.0624
▁announcing	-15.0624
▁antiquated	-15.0624
▁archiving	-15.0624
▁articulate	-15.0624
▁balancing	-15.0624
▁bankruptcy	-15.0624
▁battling	-15.0624
▁benita	-15.0624
▁brawley	-15.0624
▁certify	-15.0624
▁chaotic	-15.0624
▁chesapeake	-15.0624
▁clothing	-15.0624
▁coconut	-15.0624
▁collaborative	-15.0624
▁combining	-15.0624
▁constraints	-15.0624
▁convoluted	-15.0624
▁cranston	-15.0624
▁craziness	-15.0624
▁credibility	-15.0624
▁creepy	-15.0624
▁cubicle	-15.0624
▁curtain	-15.0624
▁disadvantage	-15.0624
▁disgrace	-15.0624
▁dixie	-15.0624
▁ecosystem	-15.0624
▁empire	-15.0624
▁encouraging	-15.0624
▁equities	-15.0624
▁facial	-15.0624
▁facsimile	-15.0624
▁ferris	-15.0624
▁fleece	-15.0624
▁forensic	-15.0624
▁frayed	-15.0624
▁fricking	-15.0624
▁frigging	-15.0624
▁gallery	-15.0624
▁gamble	-15.0624
▁guerra	-15.0624
▁holbrook	-15.0624
▁illusion	-15.0624
▁incompatible	-15.0624
▁isolating	-15.0624
▁jabber	-15.0624
▁jarvis	-15.0624
▁javier	-15.0624
▁jerome	-15.0624
▁jesper	-15.0624
▁jimenez	-15.0624
▁julius	-15.0624
▁kathlyn	-15.0624
▁kaysen	-15.0624
▁kelley	-15.0624
▁landscaping	-15.0624
▁lloyd	-15.0624
▁loophole	-15.0624
▁mahoney	-15.0624
▁maltese	-15.0624
▁manassas	-15.0624
▁mccusker	-15.0624
▁mcdermot	-15.0624
▁memphis	-15.0624
▁mobility	-15.0624
▁mojave	-15.0624
▁muddy	-15.0624
▁naked	-15.0624
▁nonstick	-15.0624
▁novasyte	-15.0624
▁nuclear	-15.0624
▁nudge	-15.0624
▁obsolete	-15.0624
▁optimus	-15.0624
▁overriding	-15.0624
▁packaging	-15.0624
▁parrot	-15.0624
▁particle	-15.0624
▁pascal	-15.0624
▁pittsburgh	-15.0624
▁portuguese	-15.0624
▁prevalent	-15.0624
▁priscilla	-15.0624
▁professor	-15.0624
▁proximate	-15.0624
▁rafael	-15.0624
▁rameriz	-15.0624
▁recommind	-15.0624
▁recreating	-15.0624
▁registrar	-15.0624
▁reliability	-15.0624
▁repetitive	-15.0624
▁repurpose	-15.0624
▁roadblock	-15.0624
▁rosalie	-15.0624
▁saddam	-15.0624
▁salesloft	-15.0624
▁sampling	-15.0624
▁schuyler	-15.0624
▁schwartz	-15.0624
▁securities	-15.0624
▁simulation	-15.0624
▁slammed	-15.0624
▁spawn	-15.0624
▁stipend	-15.0624
▁substance	-15.0624
▁sweeney	-15.0624
▁taiga	-15.0624
▁taurus	-15.0624
▁tieszen	-15.0624
▁transpired	-15.0624
▁twain	-15.0624
▁unauthorized	-15.0624
▁unprecedented	-15.0624
▁valentine	-15.0624
▁vietnamese	-15.0624
▁vinyl	-15.0624
▁waterloo	-15.0624
▁whitaker	-15.0624
▁wildfire	-15.0624
▁xavier	-15.0624
▁aerial	-15.0624
▁corolla	-15.0624
▁dahlia	-15.0624
▁datto	-15.0624
▁defining	-15.0624
▁drumming	-15.0624
▁hopkins	-15.0624
▁jargon	-15.0624
▁lenient	-15.0624
▁natasha	-15.0624
▁navient	-15.0624
▁pearlstein	-15.0624
▁rufus	-15.0624
▁sherpa	-15.0624
▁strand	-15.0624
▁uncover	-15.0624
▁adeline	-15.0624
▁agile	-15.0624
▁ascii	-15.0624
▁beringer	-15.0624
▁discharge	-15.0624
▁dumbass	-15.0624
▁harvard	-15.0624
▁hustle	-15.0624
▁livia	-15.0624
▁marvelous	-15.0624
▁megabit	-15.0624
▁nominee	-15.0624
▁panicking	-15.0624
▁primo	-15.0624
▁resistance	-15.0624
▁scammers	-15.0624
▁terrify	-15.0624
▁venice	-15.0624
▁whirl	-15.0624
▁corrine	-15.0624
▁hartford	-15.0624
▁pollock	-15.0624
▁synthe	-15.0624
▁tunity	-15.0624
▁computing	-15.0624
▁curbside	-15.0624
▁dublin	-15.0624
▁midwifery	-15.0624
▁monetary	-15.0624
▁neuro	-15.0624
▁nicolette	-15.0624
▁romero	-15.0624
▁violet	-15.0624
▁concise	-15.0624
▁decoding	-15.0624
▁encryption	-15.0624
▁kiki	-15.0624
▁mackley	-15.0624
▁misled	-15.0624
▁misty	-15.0624
▁neph	-15.0624
▁renewables	-15.0624
▁begun	-15.0624
▁replugging	-15.0624
▁secretaries	-15.0624
▁seidler	-15.0624
▁sporadically	-15.0624
▁accommodation	-15.0624
▁hideaway	-15.0624
▁malone	-15.0624
▁motorola	-15.0624
▁wilkinson	-15.0624
▁cypher	-15.0624
▁amendment	-15.0624
▁cherie	-15.0624
▁hydrant	-15.0624
▁nerio	-15.0624
▁segal	-15.0624
▁suburb	-15.0624
▁deliverance	-15.0624
▁flory	-15.0624
▁brentwood	-15.0624
▁modic	-15.0624
▁bonner	-15.0624
▁retard	-15.0624
▁supersede	-15.0624
▁tribe	-15.0624
▁mosley	-15.0624
▁bogle	-15.0624
▁nestle	-15.0624
▁talla	-15.0624
▁fiery	-15.0624
▁springfield	-15.0624
▁stalin	-15.0624
▁roland	-15.0624
▁morocco	-15.0624
▁ruling	-15.0624
▁bowen	-15.0624
▁committing	-15.0624
▁pronto	-15.0624
▁scripture	-15.0624
▁uncle	-15.0624
▁madden	-15.0624
▁07	-15.0624
▁sift	-15.0624
▁09	-15.0624
▁candidly	-15.0624
▁rainier	-15.0624
▁inherent	-15.0624
▁nominal	-15.0624
allelu	-15.0624
▁edmond	-15.0624
▁kath	-15.0624
▁marla	-15.0624
▁turret	-15.0624
▁actress	-15.0624
▁compassion	-15.0624
▁sonoma	-15.0624
▁leash	-15.0624
▁transmitted	-15.0624
▁augment	-15.0624
▁republican	-15.0624
▁armis	-15.0624
▁colonial	-15.0624
▁splitter	-15.0624
▁probable	-15.0624
▁jetter	-15.0624
▁nfc	-15.0624
▁splitting	-15.0624
▁wiping	-15.0624
▁aggravated	-15.0624
▁competent	-15.0624
▁lindow	-15.0624
▁margo	-15.0624
▁elsa	-15.0624
▁tyra	-15.0624
▁zap	-15.0624
▁barrett	-15.0624
▁amenities	-15.0624
▁oversight	-15.0624
▁coop	-15.0624
▁dollop	-15.0624
▁julianne	-15.0624
▁missionary	-15.0624
▁alien	-15.0624
▁becker	-15.0624
▁kari	-15.0624
▁molding	-15.0624
▁rapidly	-15.0624
▁kali	-15.0624
▁ceva	-15.0624
▁jelly	-15.0624
▁shipper	-15.0624
▁campuses	-15.0624
▁biber	-15.0624
▁savi	-15.0624
▁grandson	-15.0624
▁richel	-15.0625
▁demonstrate	-15.0625
▁baton	-15.0625
▁lawrenceville	-15.0625
classpass	-15.0625
▁stockton	-15.0625
▁smoother	-15.0625
▁concurrently	-15.0625
▁spamming	-15.0625
▁fries	-15.0625
▁orleans	-15.0625
▁ducting	-15.0625
▁accidental	-15.0625
▁crier	-15.0625
▁recapped	-15.0625
▁harsh	-15.0625
▁burgess	-15.0625
▁dmg	-15.0625
▁steering	-15.0625
▁lingo	-15.0625
▁teesha	-15.0625
▁moshe	-15.0625
▁lynnea	-15.0626
▁ecg	-15.0626
▁partition	-15.0626
▁scaring	-15.0626
▁pastoral	-15.0626
▁awareness	-15.0626
▁crushing	-15.0626
▁dhl	-15.0626
▁britta	-15.0626
▁bong	-15.0626
▁$51	-15.0626
▁architecture	-15.0626
▁hating	-15.0626
▁folding	-15.0626
▁hippo	-15.0627
▁darker	-15.0627
▁$54	-15.0627
▁wsts	-15.0627
▁dismissed	-15.0627
▁watchman	-15.0627
▁mabelle	-15.0627
▁emile	-15.0627
▁confidently	-15.0627
▁magent	-15.0627
▁priceless	-15.0627
▁cota	-15.0627
▁fingered	-15.0627
▁rigup	-15.0627
▁disturbance	-15.0627
▁casing	-15.0627
▁lightest	-15.0627
▁fetched	-15.0627
▁ducky	-15.0628
▁hostage	-15.0628
artisan	-15.0628
▁gregor	-15.0628
▁42	-15.0628
▁grossman	-15.0628
▁deland	-15.0628
▁dfl	-15.0628
▁glee	-15.0628
▁tearing	-15.0628
▁armando	-15.0628
▁treeline	-15.0629
▁dumping	-15.0629
▁crank	-15.0629
▁twitch	-15.0629
▁yana	-15.0629
▁decoder	-15.0629
▁53	-15.063
▁easton	-15.063
▁mander	-15.0631
▁gcp	-15.0631
▁fina	-15.0631
▁obtained	-15.0631
▁vick	-15.0631
▁nera	-15.0632
istine	-15.0632
▁sheesh	-15.0632
▁dui	-15.0632
▁flaw	-15.0632
▁amusing	-15.0632
▁danger	-15.0632
▁entre	-15.0632
▁missile	-15.0632
▁corny	-15.0633
▁bora	-15.0633
▁majorly	-15.0634
▁mailman	-15.0634
▁middleman	-15.0634
▁adjuster	-15.0634
ently	-15.0635
pond	-15.0635
▁waiver	-15.0635
▁shad	-15.0636
▁laying	-15.0637
▁widely	-15.0637
▁booming	-15.0637
anova	-15.0638
rrigan	-15.0638
▁belinda	-15.0638
▁camper	-15.0638
▁tash	-15.0639
▁dur	-15.0639
▁acquir	-15.0639
▁mascot	-15.0639
▁approaching	-15.064
▁cooley	-15.064
▁pinch	-15.0642
▁upscale	-15.0644
▁interviewing	-15.0644
▁reimbursed	-15.0645
▁mango	-15.0645
▁computed	-15.0646
▁tricking	-15.0646
▁ccg	-15.0647
▁touches	-15.0648
▁locker	-15.0648
bee	-15.0649
▁onshift	-15.065
▁jessa	-15.0651
▁gladly	-15.0652
igned	-15.0652
▁volunteering	-15.0653
▁foreigner	-15.0653
▁quint	-15.0653
nsur	-15.0653
packing	-15.0656
detector	-15.0656
▁courted	-15.0658
▁rocking	-15.0658
▁foss	-15.066
▁gorman	-15.0663
▁valve	-15.0663
apped	-15.0663
▁linkage	-15.0664
▁collapse	-15.0665
▁stadi	-15.0667
▁kilobytes	-15.0668
▁sak	-15.0668
▁carb	-15.067
olf	-15.0672
▁sown	-15.0674
▁chap	-15.0676
▁surety	-15.0677
▁underside	-15.0678
▁hooking	-15.068
ngest	-15.0681
▁denim	-15.0683
▁scha	-15.0689
conce	-15.0689
▁coro	-15.0692
ition	-15.0694
▁uphold	-15.07
▁melly	-15.0702
tting	-15.0703
▁sash	-15.0703
▁shifted	-15.0704
ipped	-15.0707
▁spade	-15.071
▁briefing	-15.0711
▁discounting	-15.0711
uffle	-15.0721
▁para	-15.0721
▁bahamas	-15.0725
▁perimeters	-15.0725
▁newton	-15.0729
amie	-15.073
▁doubting	-15.0736
rue	-15.0736
ural	-15.0737
▁gilli	-15.0741
▁downwards	-15.0754
▁weston	-15.0769
usa	-15.0769
▁leone	-15.0776
▁dv	-15.0778
▁rcn	-15.078
ask	-15.078
fo	-15.0784
rtle	-15.0786
▁ranging	-15.0789
▁alum	-15.0798
[...]
